{
  "version": "1.0",
  "truncation": null,
  "padding": null,
  "added_tokens": [],
  "normalizer": null,
  "pre_tokenizer": {
    "type": "Whitespace"
  },
  "post_processor": null,
  "decoder": null,
  "model": {
    "type": "BPE",
    "dropout": null,
    "unk_token": null,
    "continuing_subword_prefix": null,
    "end_of_word_suffix": null,
    "fuse_unk": false,
    "byte_fallback": false,
    "ignore_merges": false,
    "vocab": {
      "!": 0,
      "\"": 1,
      "%": 2,
      "'": 3,
      "(": 4,
      ")": 5,
      ",": 6,
      "-": 7,
      ".": 8,
      "0": 9,
      "1": 10,
      "2": 11,
      "3": 12,
      "4": 13,
      "5": 14,
      "6": 15,
      "7": 16,
      "8": 17,
      "9": 18,
      ":": 19,
      ";": 20,
      "?": 21,
      "A": 22,
      "B": 23,
      "C": 24,
      "D": 25,
      "E": 26,
      "F": 27,
      "G": 28,
      "H": 29,
      "I": 30,
      "J": 31,
      "K": 32,
      "L": 33,
      "M": 34,
      "N": 35,
      "O": 36,
      "P": 37,
      "Q": 38,
      "R": 39,
      "S": 40,
      "T": 41,
      "U": 42,
      "V": 43,
      "W": 44,
      "X": 45,
      "Y": 46,
      "a": 47,
      "b": 48,
      "c": 49,
      "d": 50,
      "e": 51,
      "f": 52,
      "g": 53,
      "h": 54,
      "i": 55,
      "j": 56,
      "k": 57,
      "l": 58,
      "m": 59,
      "n": 60,
      "o": 61,
      "p": 62,
      "q": 63,
      "r": 64,
      "s": 65,
      "t": 66,
      "u": 67,
      "v": 68,
      "w": 69,
      "x": 70,
      "y": 71,
      "z": 72,
      "¡": 73,
      "¿": 74,
      "Á": 75,
      "á": 76,
      "é": 77,
      "í": 78,
      "ñ": 79,
      "ó": 80,
      "ú": 81,
      "ü": 82,
      "–": 83,
      "—": 84,
      "‘": 85,
      "“": 86,
      "”": 87,
      "de": 88,
      "os": 89,
      "es": 90,
      "en": 91,
      "ue": 92,
      "ar": 93,
      "er": 94,
      "la": 95,
      "que": 96,
      "on": 97,
      "ci": 98,
      "an": 99,
      "as": 100,
      "or": 101,
      "al": 102,
      "tr": 103,
      "un": 104,
      "ad": 105,
      "re": 106,
      "ti": 107,
      "el": 108,
      "in": 109,
      "los": 110,
      "con": 111,
      "te": 112,
      "do": 113,
      "am": 114,
      "se": 115,
      "to": 116,
      "ón": 117,
      "no": 118,
      "di": 119,
      "cu": 120,
      "pr": 121,
      "lo": 122,
      "em": 123,
      "ol": 124,
      "ab": 125,
      "est": 126,
      "ción": 127,
      "por": 128,
      "om": 129,
      "si": 130,
      "ob": 131,
      "las": 132,
      "par": 133,
      "qu": 134,
      "ha": 135,
      "id": 136,
      "ic": 137,
      "is": 138,
      "pa": 139,
      "del": 140,
      "des": 141,
      "cion": 142,
      "ta": 143,
      "una": 144,
      "pue": 145,
      "ente": 146,
      "le": 147,
      "su": 148,
      "com": 149,
      "nos": 150,
      "ues": 151,
      "ía": 152,
      "im": 153,
      "ch": 154,
      "ten": 155,
      "para": 156,
      "ier": 157,
      "olu": 158,
      "ado": 159,
      "otr": 160,
      "ter": 161,
      "tu": 162,
      "gr": 163,
      "volu": 164,
      "amos": 165,
      "ari": 166,
      "uestr": 167,
      "vi": 168,
      "per": 169,
      "nuestr": 170,
      "ra": 171,
      "ca": 172,
      "emos": 173,
      "po": 174,
      "pueb": 175,
      "ados": 176,
      "ás": 177,
      "ec": 178,
      "ri": 179,
      "ma": 180,
      "mi": 181,
      "otros": 182,
      "Es": 183,
      "ando": 184,
      "pro": 185,
      "más": 186,
      "li": 187,
      "tod": 188,
      "ent": 189,
      "bi": 190,
      "ex": 191,
      "mo": 192,
      "ver": 193,
      "so": 194,
      "ac": 195,
      "mu": 196,
      "pueblo": 197,
      "me": 198,
      "pre": 199,
      "ís": 200,
      "Re": 201,
      "tra": 202,
      "ser": 203,
      "ciones": 204,
      "aba": 205,
      "ba": 206,
      "pi": 207,
      "país": 208,
      "án": 209,
      "cho": 210,
      "uer": 211,
      "Revolu": 212,
      "idad": 213,
      "ica": 214,
      "na": 215,
      "tan": 216,
      "nosotros": 217,
      "cia": 218,
      "tien": 219,
      "du": 220,
      "ni": 221,
      "lem": 222,
      "ales": 223,
      "da": 224,
      "res": 225,
      "porque": 226,
      "tor": 227,
      "como": 228,
      "go": 229,
      "tas": 230,
      "prob": 231,
      "hab": 232,
      "mos": 233,
      "amente": 234,
      "eso": 235,
      "ones": 236,
      "cer": 237,
      "tar": 238,
      "der": 239,
      "problem": 240,
      "hay": 241,
      "cir": 242,
      "dis": 243,
      "lu": 244,
      "ada": 245,
      "man": 246,
      "Cu": 247,
      "én": 248,
      "den": 249,
      "obier": 250,
      "era": 251,
      "cionari": 252,
      "Revolución": 253,
      "us": 254,
      "son": 255,
      "cre": 256,
      "les": 257,
      "pe": 258,
      "traba": 259,
      "arr": 260,
      "todos": 261,
      "trabaj": 262,
      "ir": 263,
      "obierno": 264,
      "sin": 265,
      "cos": 266,
      "lar": 267,
      "quí": 268,
      "esa": 269,
      "Est": 270,
      "ese": 271,
      "za": 272,
      "inter": 273,
      "revolu": 274,
      "Un": 275,
      "ero": 276,
      "qué": 277,
      "quier": 278,
      "idos": 279,
      "nuestro": 280,
      "co": 281,
      "dad": 282,
      "ven": 283,
      "decir": 284,
      "mente": 285,
      "ida": 286,
      "deb": 287,
      "gu": 288,
      "ambi": 289,
      "cas": 290,
      "tes": 291,
      "aquí": 292,
      "tos": 293,
      "tiv": 294,
      "ce": 295,
      "LA": 296,
      "fi": 297,
      "Cuba": 298,
      "udi": 299,
      "lan": 300,
      "ve": 301,
      "eces": 302,
      "todo": 303,
      "pres": 304,
      "puede": 305,
      "tal": 306,
      "ores": 307,
      "esta": 308,
      "tiene": 309,
      "Estados": 310,
      "añ": 311,
      "for": 312,
      "gar": 313,
      "omb": 314,
      "qui": 315,
      "Unidos": 316,
      "está": 317,
      "desarr": 318,
      "desarrol": 319,
      "00": 320,
      "pos": 321,
      "ismo": 322,
      "cur": 323,
      "ia": 324,
      "sus": 325,
      "obre": 326,
      "pol": 327,
      "ro": 328,
      "entr": 329,
      "problemas": 330,
      "Por": 331,
      "hacer": 332,
      "OS": 333,
      "ga": 334,
      "esc": 335,
      "ali": 336,
      "revolucionari": 337,
      "ya": 338,
      "medi": 339,
      "han": 340,
      "esos": 341,
      "endo": 342,
      "AP": 343,
      "gan": 344,
      "fuer": 345,
      "gobierno": 346,
      "arti": 347,
      "car": 348,
      "sab": 349,
      "ían": 350,
      "gun": 351,
      "SOS": 352,
      "USOS": 353,
      "sobre": 354,
      "LAUSOS": 355,
      "APLAUSOS": 356,
      "eros": 357,
      "este": 358,
      "ambién": 359,
      "neces": 360,
      "dere": 361,
      "prim": 362,
      "pu": 363,
      "ento": 364,
      "io": 365,
      "tir": 366,
      "ér": 367,
      "cam": 368,
      "dos": 369,
      "mun": 370,
      "también": 371,
      "cul": 372,
      "están": 373,
      "nuestra": 374,
      "ido": 375,
      "No": 376,
      "str": 377,
      "ico": 378,
      "pañ": 379,
      "homb": 380,
      "zar": 381,
      "ista": 382,
      "ban": 383,
      "estudi": 384,
      "va": 385,
      "encia": 386,
      "La": 387,
      "he": 388,
      "enci": 389,
      "aban": 390,
      "agr": 391,
      "pon": 392,
      "ocu": 393,
      "contra": 394,
      "mundo": 395,
      "esti": 396,
      "gran": 397,
      "derecho": 398,
      "ble": 399,
      "pl": 400,
      "real": 401,
      "econ": 402,
      "uni": 403,
      "estar": 404,
      "min": 405,
      "pen": 406,
      "ún": 407,
      "tenemos": 408,
      "hemos": 409,
      "fun": 410,
      ").": 411,
      "ante": 412,
      "soci": 413,
      "trabajo": 414,
      "mas": 415,
      "quel": 416,
      "versi": 417,
      "much": 418,
      "cuando": 419,
      "vo": 420,
      "ritor": 421,
      "preocu": 422,
      "fici": 423,
      "lle": 424,
      "mar": 425,
      "def": 426,
      "interes": 427,
      "fr": 428,
      "óm": 429,
      "istas": 430,
      "pero": 431,
      "aquel": 432,
      "ie": 433,
      "jo": 434,
      "produ": 435,
      "don": 436,
      "tica": 437,
      "men": 438,
      "cosas": 439,
      "sos": 440,
      "van": 441,
      "pren": 442,
      "problema": 443,
      "bu": 444,
      "ces": 445,
      "esas": 446,
      "titu": 447,
      "cual": 448,
      "El": 449,
      "ay": 450,
      "ej": 451,
      "fue": 452,
      "ora": 453,
      "parte": 454,
      "posi": 455,
      "Qu": 456,
      "pas": 457,
      "lib": 458,
      "toda": 459,
      "años": 460,
      "stru": 461,
      "En": 462,
      "cen": 463,
      "mon": 464,
      "idades": 465,
      "defen": 466,
      "bas": 467,
      "fin": 468,
      "ho": 469,
      "cción": 470,
      "cada": 471,
      "ig": 472,
      "mis": 473,
      "íamos": 474,
      "tedes": 475,
      "cuban": 476,
      "aria": 477,
      "Pero": 478,
      "ios": 479,
      "lí": 480,
      "nor": 481,
      "tienen": 482,
      "..": 483,
      "compañ": 484,
      "forma": 485,
      "Con": 486,
      "gen": 487,
      "condi": 488,
      "cional": 489,
      "pueblos": 490,
      "dar": 491,
      "ión": 492,
      "ómo": 493,
      "nuestros": 494,
      "can": 495,
      "plo": 496,
      "muy": 497,
      "artis": 498,
      "intereses": 499,
      "guer": 500,
      "ial": 501,
      "ll": 502,
      "sa": 503,
      "tro": 504,
      "entos": 505,
      "discu": 506,
      "económ": 507,
      "social": 508,
      "día": 509,
      "sen": 510,
      "és": 511,
      "algun": 512,
      "señ": 513,
      "entes": 514,
      "ah": 515,
      "au": 516,
      "recur": 517,
      "ade": 518,
      "ican": 519,
      "impor": 520,
      "solo": 521,
      "mej": 522,
      "pues": 523,
      "antes": 524,
      "países": 525,
      "donde": 526,
      "cor": 527,
      "gún": 528,
      "ne": 529,
      "nin": 530,
      "ras": 531,
      "hu": 532,
      "asta": 533,
      "adas": 534,
      "sión": 535,
      "hecho": 536,
      "condiciones": 537,
      "recursos": 538,
      "das": 539,
      "contr": 540,
      "desde": 541,
      "tener": 542,
      "todas": 543,
      "desarrollo": 544,
      "hombres": 545,
      "dr": 546,
      "mili": 547,
      "lla": 548,
      "icos": 549,
      "debe": 550,
      "vida": 551,
      "demos": 552,
      "estamos": 553,
      "cionario": 554,
      "ustedes": 555,
      "polí": 556,
      "universi": 557,
      "bar": 558,
      "tido": 559,
      "había": 560,
      "sino": 561,
      "cha": 562,
      "pes": 563,
      "pel": 564,
      "erican": 565,
      "team": 566,
      "clar": 567,
      "opol": 568,
      "plan": 569,
      "Revolucionario": 570,
      "Gobierno": 571,
      "fu": 572,
      "pli": 573,
      "sal": 574,
      "tad": 575,
      "ías": 576,
      "adie": 577,
      "tin": 578,
      "segu": 579,
      "cuesti": 580,
      "tur": 581,
      "cómo": 582,
      "fec": 583,
      "hasta": 584,
      "eran": 585,
      "icar": 586,
      "monopol": 587,
      "norteam": 588,
      "norteamerican": 589,
      "Nos": 590,
      "ide": 591,
      "pital": 592,
      "hoy": 593,
      "clu": 594,
      "cum": 595,
      "avi": 596,
      "fica": 597,
      "allí": 598,
      "ami": 599,
      "ario": 600,
      "poder": 601,
      "esto": 602,
      "estos": 603,
      "entre": 604,
      "puesto": 605,
      "iones": 606,
      "tel": 607,
      "rec": 608,
      "año": 609,
      "muchos": 610,
      "cier": 611,
      "tenido": 612,
      "raz": 613,
      "bien": 614,
      "mucho": 615,
      "000": 616,
      "artistas": 617,
      "guerra": 618,
      "ON": 619,
      "Parti": 620,
      "col": 621,
      "organ": 622,
      "cons": 623,
      "constru": 624,
      "fuerz": 625,
      "menos": 626,
      "cualquier": 627,
      "gram": 628,
      "vez": 629,
      "Partido": 630,
      "nadie": 631,
      "enta": 632,
      "able": 633,
      "tura": 634,
      "capital": 635,
      "Porque": 636,
      "ación": 637,
      "nue": 638,
      "tado": 639,
      "tran": 640,
      "patr": 641,
      "compañeros": 642,
      "Nosotros": 643,
      "his": 644,
      "remos": 645,
      "preci": 646,
      "tante": 647,
      "quiere": 648,
      "sí": 649,
      "éc": 650,
      "mill": 651,
      "monopolios": 652,
      "dan": 653,
      "je": 654,
      "situ": 655,
      "mater": 656,
      "revolucionario": 657,
      "primer": 658,
      "encias": 659,
      "Na": 660,
      "bl": 661,
      "guna": 662,
      "rg": 663,
      "ros": 664,
      "yo": 665,
      "aron": 666,
      "tiem": 667,
      "comun": 668,
      "caso": 669,
      "escritor": 670,
      "realidad": 671,
      "Qué": 672,
      "algunos": 673,
      "tamente": 674,
      "lado": 675,
      "sig": 676,
      "sub": 677,
      "imos": 678,
      "fer": 679,
      "iz": 680,
      "ple": 681,
      "ul": 682,
      "lación": 683,
      "territor": 684,
      "verda": 685,
      "niñ": 686,
      "escue": 687,
      "ag": 688,
      "pla": 689,
      "rar": 690,
      "sol": 691,
      "udad": 692,
      "tis": 693,
      "tipo": 694,
      "nuestras": 695,
      "grama": 696,
      "territorio": 697,
      "vía": 698,
      "ellos": 699,
      "sido": 700,
      "may": 701,
      "érica": 702,
      "hombre": 703,
      "ejem": 704,
      "mismo": 705,
      "nada": 706,
      "cias": 707,
      "inclu": 708,
      "dir": 709,
      "icas": 710,
      "capa": 711,
      "luch": 712,
      "debemos": 713,
      "buen": 714,
      ".)": 715,
      "bamos": 716,
      "cr": 717,
      "ór": 718,
      "sea": 719,
      "dido": 720,
      "otro": 721,
      "vir": 722,
      "colon": 723,
      "Am": 724,
      "jus": 725,
      "mé": 726,
      "var": 727,
      "vamos": 728,
      "esp": 729,
      "algo": 730,
      "almente": 731,
      "cono": 732,
      "conci": 733,
      "compren": 734,
      "propi": 735,
      "nacional": 736,
      "manera": 737,
      "cep": 738,
      "patria": 739,
      "América": 740,
      "téc": 741,
      "val": 742,
      "enem": 743,
      "tico": 744,
      "ino": 745,
      "ley": 746,
      "ieron": 747,
      "greso": 748,
      "arios": 749,
      "expl": 750,
      "tores": 751,
      "realmente": 752,
      "muchas": 753,
      "preocupa": 754,
      "ahora": 755,
      "militar": 756,
      "escritores": 757,
      "técn": 758,
      "ata": 759,
      "fa": 760,
      "onces": 761,
      "ciudad": 762,
      "así": 763,
      "otra": 764,
      "podemos": 765,
      "gación": 766,
      "mejor": 767,
      "tiempo": 768,
      "mayor": 769,
      "ejemplo": 770,
      "dam": 771,
      "il": 772,
      "pú": 773,
      "ciendo": 774,
      "embar": 775,
      "tanto": 776,
      "producción": 777,
      "públ": 778,
      "mer": 779,
      "arse": 780,
      "unto": 781,
      "ins": 782,
      "inos": 783,
      "exis": 784,
      "nación": 785,
      "campes": 786,
      "defender": 787,
      "además": 788,
      "human": 789,
      "ES": 790,
      "Se": 791,
      "Si": 792,
      "centr": 793,
      "sac": 794,
      "reci": 795,
      "dele": 796,
      "lugar": 797,
      "alizar": 798,
      "revolucionarios": 799,
      "pens": 800,
      "fundam": 801,
      "misma": 802,
      "incluso": 803,
      "embargo": 804,
      "Com": 805,
      "De": 806,
      "az": 807,
      "edi": 808,
      "ju": 809,
      "dej": 810,
      "depen": 811,
      "uel": 812,
      "chos": 813,
      "person": 814,
      "ritu": 815,
      "lucha": 816,
      "quieren": 817,
      "posible": 818,
      "todavía": 819,
      "AC": 820,
      "ION": 821,
      "br": 822,
      "hi": 823,
      "él": 824,
      "uego": 825,
      "lab": 826,
      "unca": 827,
      "imper": 828,
      "termin": 829,
      "peri": 830,
      "expres": 831,
      "pregun": 832,
      "fuerza": 833,
      "necesidad": 834,
      "agres": 835,
      "ayu": 836,
      "cumpli": 837,
      "fundament": 838,
      "ACION": 839,
      "CLA": 840,
      "EX": 841,
      "Los": 842,
      "estas": 843,
      "entonces": 844,
      "revolución": 845,
      "quién": 846,
      "millones": 847,
      "CLAM": 848,
      "EXCLAM": 849,
      "),": 850,
      "hos": 851,
      "mor": 852,
      "íritu": 853,
      "dera": 854,
      "eral": 855,
      "aspi": 856,
      "ador": 857,
      "estado": 858,
      "idas": 859,
      "medio": 860,
      "éramos": 861,
      "universidad": 862,
      "espíritu": 863,
      "Hay": 864,
      "Pro": 865,
      "cal": 866,
      "cab": 867,
      "fal": 868,
      "dese": 869,
      "adores": 870,
      "pri": 871,
      "prom": 872,
      "otras": 873,
      "podr": 874,
      "acción": 875,
      "érci": 876,
      "igos": 877,
      "cambi": 878,
      "ru": 879,
      "enseñ": 880,
      "div": 881,
      "obra": 882,
      "vici": 883,
      "toria": 884,
      "aliz": 885,
      "pués": 886,
      "cubanos": 887,
      "socialismo": 888,
      "ningún": 889,
      "política": 890,
      "imperial": 891,
      "ACIONES": 892,
      "EXCLAMACIONES": 893,
      "cla": 894,
      "efici": 895,
      "fá": 896,
      "jer": 897,
      "cimi": 898,
      "anti": 899,
      "tri": 900,
      "repres": 901,
      "olver": 902,
      "imi": 903,
      "haber": 904,
      "creo": 905,
      "tiva": 906,
      "medidas": 907,
      "cultura": 908,
      "liber": 909,
      "autor": 910,
      "aviones": 911,
      "niños": 912,
      "sacri": 913,
      "ército": 914,
      "Al": 915,
      "bomb": 916,
      "din": 917,
      "rante": 918,
      "vel": 919,
      "ño": 920,
      "úl": 921,
      "uno": 922,
      "inf": 923,
      "inv": 924,
      "indu": 925,
      "concep": 926,
      "empre": 927,
      "omía": 928,
      "pueden": 929,
      "explo": 930,
      "natur": 931,
      "tantes": 932,
      "habr": 933,
      "quiera": 934,
      "tivas": 935,
      "desarrolla": 936,
      "poner": 937,
      "enemigos": 938,
      "campesinos": 939,
      "industr": 940,
      "bre": 941,
      "cti": 942,
      "evi": 943,
      "edu": 944,
      "ien": 945,
      "pob": 946,
      "pudi": 947,
      "veces": 948,
      "tina": 949,
      "inci": 950,
      "intel": 951,
      "siempre": 952,
      "tación": 953,
      "leg": 954,
      "surg": 955,
      "extran": 956,
      "respon": 957,
      "base": 958,
      "...": 959,
      "discutir": 960,
      "futu": 961,
      "cuestión": 962,
      "cuestiones": 963,
      "aun": 964,
      "dados": 965,
      "días": 966,
      "ficar": 967,
      "nunca": 968,
      "pin": 969,
      "solu": 970,
      "—,": 971,
      "consi": 972,
      "Eso": 973,
      "nacion": 974,
      "nivel": 975,
      "distin": 976,
      "dencia": 977,
      "cosa": 978,
      "zación": 979,
      "tivo": 980,
      "lando": 981,
      "escri": 982,
      "médi": 983,
      "extranj": 984,
      "!,": 985,
      "apren": 986,
      "fami": 987,
      "hon": 988,
      "oper": 989,
      "pó": 990,
      "demás": 991,
      "cuenta": 992,
      "haciendo": 993,
      "después": 994,
      "cación": 995,
      "poco": 996,
      "dentro": 997,
      "Latina": 998,
      "ninguna": 999,
      "plante": 1000,
      "organi": 1001,
      "fuerzas": 1002,
      "pública": 1003,
      "Programa": 1004,
      "famili": 1005,
      "AS": 1006,
      "cado": 1007,
      "edad": 1008,
      "ocur": 1009,
      "pan": 1010,
      "tales": 1011,
      "rela": 1012,
      "tier": 1013,
      "ina": 1014,
      "indepen": 1015,
      "contin": 1016,
      "empe": 1017,
      "hace": 1018,
      "ismos": 1019,
      "vié": 1020,
      "deber": 1021,
      "quien": 1022,
      "revolucionaria": 1023,
      "fueron": 1024,
      "sabe": 1025,
      "saben": 1026,
      "agraria": 1027,
      "aquellos": 1028,
      "contrar": 1029,
      "constitu": 1030,
      "población": 1031,
      "futuro": 1032,
      "gente": 1033,
      "it": 1034,
      "igr": 1035,
      "luego": 1036,
      "samente": 1037,
      "vos": 1038,
      "vin": 1039,
      "esfuerz": 1040,
      "queremos": 1041,
      "cido": 1042,
      "anza": 1043,
      "instru": 1044,
      "amble": 1045,
      "estaban": 1046,
      "port": 1047,
      "hac": 1048,
      "imo": 1049,
      "perfec": 1050,
      "será": 1051,
      "dades": 1052,
      "grandes": 1053,
      "economía": 1054,
      "Congreso": 1055,
      "historia": 1056,
      "últi": 1057,
      "amblea": 1058,
      "19": 1059,
      "IS": 1060,
      "RIS": 1061,
      "má": 1062,
      "mal": 1063,
      "ren": 1064,
      "ícu": 1065,
      "err": 1066,
      "cil": 1067,
      "algún": 1068,
      "reforma": 1069,
      "ticas": 1070,
      "ables": 1071,
      "sis": 1072,
      "siones": 1073,
      "tades": 1074,
      "tendr": 1075,
      "tud": 1076,
      "activ": 1077,
      "actitu": 1078,
      "necesidades": 1079,
      "senti": 1080,
      "escuelas": 1081,
      "cumplir": 1082,
      "RISAS": 1083,
      "fac": 1084,
      "san": 1085,
      "vis": 1086,
      "vista": 1087,
      "ara": 1088,
      "logr": 1089,
      "olv": 1090,
      "propó": 1091,
      "prepar": 1092,
      "servici": 1093,
      "Unidas": 1094,
      "ficios": 1095,
      "precisamente": 1096,
      "Naciones": 1097,
      "verdader": 1098,
      "soldados": 1099,
      "preocupación": 1100,
      "propósi": 1101,
      "apla": 1102,
      "eza": 1103,
      "gamos": 1104,
      "ici": 1105,
      "iales": 1106,
      "mec": 1107,
      "som": 1108,
      "um": 1109,
      "ín": 1110,
      "esper": 1111,
      "espe": 1112,
      "ena": 1113,
      "tema": 1114,
      "prá": 1115,
      "estable": 1116,
      "obr": 1117,
      "hacia": 1118,
      "actu": 1119,
      "mujer": 1120,
      "batal": 1121,
      "pitales": 1122,
      "uerdo": 1123,
      "nifica": 1124,
      "lemente": 1125,
      "resul": 1126,
      "peque": 1127,
      "estudio": 1128,
      "estudiantes": 1129,
      "llevar": 1130,
      "general": 1131,
      "universit": 1132,
      "seguir": 1133,
      "idea": 1134,
      "razón": 1135,
      "conciencia": 1136,
      "aspira": 1137,
      "nacionales": 1138,
      "bel": 1139,
      "bus": 1140,
      "dado": 1141,
      "ién": 1142,
      "jos": 1143,
      "pec": 1144,
      "determin": 1145,
      "cin": 1146,
      "unci": 1147,
      "reuni": 1148,
      "esté": 1149,
      "imin": 1150,
      "tencia": 1151,
      "tenían": 1152,
      "permi": 1153,
      "bir": 1154,
      "sería": 1155,
      "tancia": 1156,
      "trabajar": 1157,
      "tivos": 1158,
      "cultades": 1159,
      "preocupar": 1160,
      "produc": 1161,
      "ejército": 1162,
      "cubana": 1163,
      "económico": 1164,
      "mejores": 1165,
      "norteamericano": 1166,
      "construcción": 1167,
      "justi": 1168,
      "investi": 1169,
      "educación": 1170,
      "DE": 1171,
      "In": 1172,
      "Yo": 1173,
      "acu": 1174,
      "bles": 1175,
      "dó": 1176,
      "ez": 1177,
      "fes": 1178,
      "oport": 1179,
      "tando": 1180,
      "armas": 1181,
      "cidad": 1182,
      "unos": 1183,
      "reacción": 1184,
      "ele": 1185,
      "conver": 1186,
      "tom": 1187,
      "diri": 1188,
      "cuad": 1189,
      "emple": 1190,
      "parec": 1191,
      "tuvo": 1192,
      "uerte": 1193,
      "haya": 1194,
      "Estado": 1195,
      "minis": 1196,
      "frica": 1197,
      "aquella": 1198,
      "formación": 1199,
      "adelan": 1200,
      "peligr": 1201,
      "cierto": 1202,
      "situación": 1203,
      "ilidad": 1204,
      "centro": 1205,
      "pensar": 1206,
      "hospitales": 1207,
      "libertad": 1208,
      "desarrollados": 1209,
      "extranjeros": 1210,
      "opera": 1211,
      "esfuerzo": 1212,
      "oportun": 1213,
      "50": 1214,
      "?,": 1215,
      "Ah": 1216,
      "Uni": 1217,
      "Ya": 1218,
      "equi": 1219,
      "fí": 1220,
      "fir": 1221,
      "íf": 1222,
      "dedi": 1223,
      "art": 1224,
      "trem": 1225,
      "reg": 1226,
      "conse": 1227,
      "pagar": 1228,
      "super": 1229,
      "rique": 1230,
      "rido": 1231,
      "extra": 1232,
      "mucha": 1233,
      "serie": 1234,
      "durante": 1235,
      "habían": 1236,
      "deben": 1237,
      "casi": 1238,
      "form": 1239,
      "desarrollar": 1240,
      "encilla": 1241,
      "preocup": 1242,
      "llegar": 1243,
      "joven": 1244,
      "sentido": 1245,
      "claro": 1246,
      "comunista": 1247,
      "escuela": 1248,
      "crimin": 1249,
      "actitud": 1250,
      "visto": 1251,
      "propósito": 1252,
      "oportunidad": 1253,
      "As": 1254,
      "Africa": 1255,
      "Que": 1256,
      "Ten": 1257,
      "avan": 1258,
      "ceso": 1259,
      "igu": 1260,
      "ses": 1261,
      "tór": 1262,
      "ña": 1263,
      "anto": 1264,
      "alcan": 1265,
      "tru": 1266,
      "conven": 1267,
      "cuán": 1268,
      "estaba": 1269,
      "obli": 1270,
      "che": 1271,
      "tenga": 1272,
      "gru": 1273,
      "vien": 1274,
      "pod": 1275,
      "ectu": 1276,
      "rir": 1277,
      "resolver": 1278,
      "tare": 1279,
      "creador": 1280,
      "trabajando": 1281,
      "lares": 1282,
      "entras": 1283,
      "revolucionarias": 1284,
      "saber": 1285,
      "camino": 1286,
      "estudiar": 1287,
      "pasado": 1288,
      "amiento": 1289,
      "histór": 1290,
      "verdadera": 1291,
      "delegación": 1292,
      "concepto": 1293,
      "intelectu": 1294,
      "aunque": 1295,
      "especi": 1296,
      "encillamente": 1297,
      "Bu": 1298,
      "apo": 1299,
      "afec": 1300,
      "ben": 1301,
      "cun": 1302,
      "cri": 1303,
      "gos": 1304,
      "ias": 1305,
      "junto": 1306,
      "mero": 1307,
      "nú": 1308,
      "ran": 1309,
      "rad": 1310,
      "tó": 1311,
      "tam": 1312,
      "tados": 1313,
      "vieron": 1314,
      "xi": 1315,
      "ál": 1316,
      "dec": 1317,
      "adminis": 1318,
      "inversi": 1319,
      "tomar": 1320,
      "princi": 1321,
      "obras": 1322,
      "puedan": 1323,
      "tenía": 1324,
      "arias": 1325,
      "profes": 1326,
      "duda": 1327,
      "dente": 1328,
      "necesario": 1329,
      "campo": 1330,
      "fuera": 1331,
      "defensa": 1332,
      "cubano": 1333,
      "artista": 1334,
      "algunas": 1335,
      "ahí": 1336,
      "importante": 1337,
      "subdesarrollados": 1338,
      "explica": 1339,
      "falta": 1340,
      "mecan": 1341,
      "universitaria": 1342,
      "número": 1343,
      "!”": 1344,
      "aten": 1345,
      "fic": 1346,
      "gía": 1347,
      "mes": 1348,
      "opin": 1349,
      "punto": 1350,
      "uti": 1351,
      "ío": 1352,
      "óg": 1353,
      "“¡": 1354,
      "eno": 1355,
      "anos": 1356,
      "aso": 1357,
      "alguna": 1358,
      "reo": 1359,
      "incur": 1360,
      "tecimi": 1361,
      "sean": 1362,
      "absolu": 1363,
      "destru": 1364,
      "pueda": 1365,
      "come": 1366,
      "comen": 1367,
      "proceso": 1368,
      "entar": 1369,
      "bil": 1370,
      "verdad": 1371,
      "mantener": 1372,
      "usos": 1373,
      "interés": 1374,
      "sociedad": 1375,
      "Quién": 1376,
      "miser": 1377,
      "económicos": 1378,
      "correc": 1379,
      "político": 1380,
      "norteamericanos": 1381,
      "ideas": 1382,
      "materiales": 1383,
      "institu": 1384,
      "agresión": 1385,
      "fundamental": 1386,
      "cabo": 1387,
      "fábr": 1388,
      "viética": 1389,
      "olvid": 1390,
      "somos": 1391,
      "batalla": 1392,
      "adelante": 1393,
      "Asamblea": 1394,
      "So": 1395,
      "her": 1396,
      "jó": 1397,
      "lá": 1398,
      "yan": 1399,
      "arde": 1400,
      "lamente": 1401,
      "cina": 1402,
      "tros": 1403,
      "dio": 1404,
      "dice": 1405,
      "sim": 1406,
      "obje": 1407,
      "icamente": 1408,
      "isla": 1409,
      "taciones": 1410,
      "vileg": 1411,
      "mientras": 1412,
      "hablar": 1413,
      "manos": 1414,
      "creemos": 1415,
      "cultur": 1416,
      "posición": 1417,
      "material": 1418,
      "Nacional": 1419,
      "luchar": 1420,
      "colonia": 1421,
      "comprender": 1422,
      "privileg": 1423,
      "escribir": 1424,
      "pequeño": 1425,
      "dirig": 1426,
      "principi": 1427,
      ");": 1428,
      "Des": 1429,
      "Para": 1430,
      "ber": 1431,
      "fab": 1432,
      "gobier": 1433,
      "mom": 1434,
      "rent": 1435,
      "taba": 1436,
      "arme": 1437,
      "cio": 1438,
      "ana": 1439,
      "redu": 1440,
      "ella": 1441,
      "condu": 1442,
      "tec": 1443,
      "ampli": 1444,
      "difí": 1445,
      "siquiera": 1446,
      "idores": 1447,
      "comba": 1448,
      "iera": 1449,
      "terin": 1450,
      "vivir": 1451,
      "programa": 1452,
      "acuerdo": 1453,
      "pien": 1454,
      "tiendo": 1455,
      "mani": 1456,
      "Cuando": 1457,
      "veterin": 1458,
      "derechos": 1459,
      "tiran": 1460,
      "bases": 1461,
      "satis": 1462,
      "señor": 1463,
      "capitalista": 1464,
      "capitalistas": 1465,
      "agre": 1466,
      "autoridades": 1467,
      "responsab": 1468,
      "consider": 1469,
      "constituy": 1470,
      "actividades": 1471,
      "verdaderamente": 1472,
      "aplausos": 1473,
      "artís": 1474,
      "sesiones": 1475,
      "utili": 1476,
      "60": 1477,
      "Haban": 1478,
      "Lo": 1479,
      "To": 1480,
      "atr": 1481,
      "atro": 1482,
      "be": 1483,
      "camente": 1484,
      "dón": 1485,
      "eta": 1486,
      "fera": 1487,
      "gi": 1488,
      "gn": 1489,
      "gado": 1490,
      "gados": 1491,
      "sencillamente": 1492,
      "vuel": 1493,
      "zas": 1494,
      "enten": 1495,
      "enfr": 1496,
      "arm": 1497,
      "orden": 1498,
      "tró": 1499,
      "elec": 1500,
      "difi": 1501,
      "parti": 1502,
      "partido": 1503,
      "impu": 1504,
      "teníamos": 1505,
      "trata": 1506,
      "baj": 1507,
      "circun": 1508,
      "disf": 1509,
      "pedir": 1510,
      "internacionales": 1511,
      "coopera": 1512,
      "venes": 1513,
      "presas": 1514,
      "zaron": 1515,
      "mismos": 1516,
      "Congo": 1517,
      "pesar": 1518,
      "nuevo": 1519,
      "comunistas": 1520,
      "militares": 1521,
      "técnicos": 1522,
      "personal": 1523,
      "ayuda": 1524,
      "desem": 1525,
      "imiento": 1526,
      "bombas": 1527,
      "independencia": 1528,
      "198": 1529,
      "servicios": 1530,
      "obreros": 1531,
      "cuadros": 1532,
      "consecu": 1533,
      "mecanismos": 1534,
      "opinión": 1535,
      "jóvenes": 1536,
      "manif": 1537,
      "Habana": 1538,
      "circuns": 1539,
      "Cómo": 1540,
      "Gu": 1541,
      "Po": 1542,
      "Sin": 1543,
      "Us": 1544,
      "apl": 1545,
      "bo": 1546,
      "llas": 1547,
      "ocas": 1548,
      "tá": 1549,
      "tamos": 1550,
      "uto": 1551,
      "vas": 1552,
      "vol": 1553,
      "ximo": 1554,
      "zó": 1555,
      "zado": 1556,
      "íbamos": 1557,
      "úcar": 1558,
      "deci": 1559,
      "debi": 1560,
      "enter": 1561,
      "arnos": 1562,
      "eron": 1563,
      "ciencias": 1564,
      "anal": 1565,
      "ase": 1566,
      "reun": 1567,
      "realizar": 1568,
      "tem": 1569,
      "tex": 1570,
      "digo": 1571,
      "diendo": 1572,
      "dijo": 1573,
      "papel": 1574,
      "comple": 1575,
      "vio": 1576,
      "maes": 1577,
      "proce": 1578,
      "trav": 1579,
      "habla": 1580,
      "dispuesto": 1581,
      "crear": 1582,
      "casos": 1583,
      "medicina": 1584,
      "primero": 1585,
      "campañ": 1586,
      "funcion": 1587,
      "masi": 1588,
      "poderos": 1589,
      "cieron": 1590,
      "nuevos": 1591,
      "bueno": 1592,
      "azúcar": 1593,
      "labor": 1594,
      "ayudar": 1595,
      "cambio": 1596,
      "imperialismo": 1597,
      "represent": 1598,
      "sacrificios": 1599,
      "bombarde": 1600,
      "dinero": 1601,
      "naturales": 1602,
      "hacemos": 1603,
      "renunci": 1604,
      "prácti": 1605,
      "buscar": 1606,
      "Tenemos": 1607,
      "grupo": 1608,
      "cultural": 1609,
      "gobiernos": 1610,
      "momento": 1611,
      "dificultades": 1612,
      "Ustedes": 1613,
      "20": 1614,
      "Ar": 1615,
      "Aquí": 1616,
      "aé": 1617,
      "gando": 1618,
      "iendo": 1619,
      "jam": 1620,
      "of": 1621,
      "uso": 1622,
      "ví": 1623,
      "vado": 1624,
      "zon": 1625,
      "ísi": 1626,
      "ñas": 1627,
      "declar": 1628,
      "esfera": 1629,
      "encontrar": 1630,
      "ano": 1631,
      "asis": 1632,
      "unas": 1633,
      "culos": 1634,
      "cuales": 1635,
      "empresas": 1636,
      "desarme": 1637,
      "supuesto": 1638,
      "miles": 1639,
      "Esto": 1640,
      "ace": 1641,
      "acer": 1642,
      "bajo": 1643,
      "eración": 1644,
      "gaciones": 1645,
      "sabemos": 1646,
      "necesi": 1647,
      "primeros": 1648,
      "dose": 1649,
      "libre": 1650,
      "económica": 1651,
      "corr": 1652,
      "pelícu": 1653,
      "estoy": 1654,
      "recti": 1655,
      "significa": 1656,
      "virtud": 1657,
      "enseñanza": 1658,
      "médicos": 1659,
      "familia": 1660,
      "perfectamente": 1661,
      "errores": 1662,
      "cinco": 1663,
      "reunión": 1664,
      "dólares": 1665,
      "Unión": 1666,
      "criminales": 1667,
      "histórico": 1668,
      "vícti": 1669,
      "10": 1670,
      "Nuestr": 1671,
      "ap": 1672,
      "cados": 1673,
      "ctor": 1674,
      "ja": 1675,
      "jas": 1676,
      "ke": 1677,
      "lor": 1678,
      "mento": 1679,
      "mentos": 1680,
      "pun": 1681,
      "pti": 1682,
      "ramos": 1683,
      "sob": 1684,
      "suerte": 1685,
      "tán": 1686,
      "uin": 1687,
      "vor": 1688,
      "vemos": 1689,
      "ábamos": 1690,
      "íco": 1691,
      "ños": 1692,
      "esenci": 1693,
      "ares": 1694,
      "arlo": 1695,
      "anci": 1696,
      "alto": 1697,
      "reas": 1698,
      "ini": 1699,
      "conde": 1700,
      "conces": 1701,
      "domin": 1702,
      "diente": 1703,
      "dicho": 1704,
      "estu": 1705,
      "sir": 1706,
      "hacen": 1707,
      "paz": 1708,
      "palab": 1709,
      "imag": 1710,
      "tengan": 1711,
      "teri": 1712,
      "terr": 1713,
      "terio": 1714,
      "visi": 1715,
      "viendo": 1716,
      "exig": 1717,
      "experi": 1718,
      "trai": 1719,
      "respe": 1720,
      "dencias": 1721,
      "petir": 1722,
      "trabajadores": 1723,
      "sincer": 1724,
      "fortal": 1725,
      "formar": 1726,
      "primera": 1727,
      "agríco": 1728,
      "único": 1729,
      "segur": 1730,
      "construir": 1731,
      "millón": 1732,
      "tista": 1733,
      "azu": 1734,
      "podría": 1735,
      "distintos": 1736,
      "aprender": 1737,
      "organización": 1738,
      "relacion": 1739,
      "sentimi": 1740,
      "mujeres": 1741,
      "preocuparse": 1742,
      "peligro": 1743,
      "tremen": 1744,
      "igual": 1745,
      "tarea": 1746,
      "intelectuales": 1747,
      "meses": 1748,
      "Soviética": 1749,
      "disfraz": 1750,
      "maestros": 1751,
      "través": 1752,
      "Creo": 1753,
      "Pues": 1754,
      "Sí": 1755,
      "at": 1756,
      "afir": 1757,
      "fe": 1758,
      "fas": 1759,
      "ion": 1760,
      "ofici": 1761,
      "ton": 1762,
      "vue": 1763,
      "yendo": 1764,
      "ódi": 1765,
      "demi": 1766,
      "defi": 1767,
      "eng": 1768,
      "enos": 1769,
      "enfer": 1770,
      "quer": 1771,
      "cida": 1772,
      "ordin": 1773,
      "allá": 1774,
      "tres": 1775,
      "adamente": 1776,
      "adqui": 1777,
      "ticos": 1778,
      "infin": 1779,
      "temor": 1780,
      "amen": 1781,
      "cuanto": 1782,
      "pró": 1783,
      "pron": 1784,
      "logía": 1785,
      "abilidad": 1786,
      "desti": 1787,
      "comer": 1788,
      "cademi": 1789,
      "podía": 1790,
      "riendo": 1791,
      "Esa": 1792,
      "propon": 1793,
      "traidores": 1794,
      "serán": 1795,
      "creando": 1796,
      "pecu": 1797,
      "arruin": 1798,
      "revoluciones": 1799,
      "guien": 1800,
      "curso": 1801,
      "medida": 1802,
      "puesta": 1803,
      "cultad": 1804,
      "estudiante": 1805,
      "frente": 1806,
      "aquellas": 1807,
      "importa": 1808,
      "claridad": 1809,
      "cumpl": 1810,
      "avión": 1811,
      "ficación": 1812,
      "organiz": 1813,
      "consci": 1814,
      "nueva": 1815,
      "leyes": 1816,
      "explicar": 1817,
      "técnica": 1818,
      "técnico": 1819,
      "favor": 1820,
      "humanidad": 1821,
      "preguntar": 1822,
      "quiénes": 1823,
      "calidad": 1824,
      "divul": 1825,
      "eficiencia": 1826,
      "fácil": 1827,
      "habrá": 1828,
      "tierras": 1829,
      "quienes": 1830,
      "resultado": 1831,
      "extraordin": 1832,
      "especial": 1833,
      "miseria": 1834,
      "Desde": 1835,
      "condena": 1836,
      "azucar": 1837,
      "defien": 1838,
      ".\"": 1839,
      "Ba": 1840,
      "Clar": 1841,
      "Las": 1842,
      "aciones": 1843,
      "efec": 1844,
      "hor": 1845,
      "hero": 1846,
      "ió": 1847,
      "ibu": 1848,
      "idente": 1849,
      "judi": 1850,
      "ré": 1851,
      "sé": 1852,
      "selec": 1853,
      "vic": 1854,
      "vimos": 1855,
      "varios": 1856,
      "volver": 1857,
      "zo": 1858,
      "zando": 1859,
      "decen": 1860,
      "ercer": 1861,
      "alim": 1862,
      "alguien": 1863,
      "ello": 1864,
      "inten": 1865,
      "dig": 1866,
      "culo": 1867,
      "partam": 1868,
      "ques": 1869,
      "pación": 1870,
      "sur": 1871,
      "tuvieron": 1872,
      "gra": 1873,
      "ariamente": 1874,
      "perjudi": 1875,
      "poca": 1876,
      "podido": 1877,
      "verg": 1878,
      "acaso": 1879,
      "tratar": 1880,
      "tancias": 1881,
      "hayan": 1882,
      "mano": 1883,
      "dentes": 1884,
      "creer": 1885,
      "arro": 1886,
      "internacional": 1887,
      "gua": 1888,
      "estaciones": 1889,
      "medios": 1890,
      "necesit": 1891,
      "campos": 1892,
      "vaya": 1893,
      "grande": 1894,
      "función": 1895,
      "masas": 1896,
      "llev": 1897,
      "fran": 1898,
      "posibil": 1899,
      "bastante": 1900,
      "hotel": 1901,
      "económicas": 1902,
      "nego": 1903,
      "negar": 1904,
      "nega": 1905,
      "hubi": 1906,
      "contribu": 1907,
      "militantes": 1908,
      "llam": 1909,
      "llamar": 1910,
      "norteamericana": 1911,
      "ONU": 1912,
      "cualquiera": 1913,
      "tranqui": 1914,
      "niño": 1915,
      "capaci": 1916,
      "capaces": 1917,
      "buenos": 1918,
      "conocimi": 1919,
      "valor": 1920,
      "ciudadanos": 1921,
      "exist": 1922,
      "humana": 1923,
      "recibi": 1924,
      "periódi": 1925,
      "pregunto": 1926,
      "representa": 1927,
      "infanti": 1928,
      "explotación": 1929,
      "cumplirlo": 1930,
      "belde": 1931,
      "benefici": 1932,
      "inversiones": 1933,
      "profesores": 1934,
      "explicación": 1935,
      "!”)": 1936,
      "tecimiento": 1937,
      "absolutamente": 1938,
      "correcto": 1939,
      "principio": 1940,
      "tecno": 1941,
      "tiranía": 1942,
      "circunstancias": 1943,
      "texto": 1944,
      "jamás": 1945,
      "corrom": 1946,
      "película": 1947,
      "imagin": 1948,
      "terror": 1949,
      "Claro": 1950,
      "Cas": 1951,
      "Gen": 1952,
      "Una": 1953,
      "acon": 1954,
      "aparec": 1955,
      "camos": 1956,
      "cra": 1957,
      "dor": 1958,
      "gus": 1959,
      "ilu": 1960,
      "isión": 1961,
      "limi": 1962,
      "lóg": 1963,
      "plemente": 1964,
      "ram": 1965,
      "rke": 1966,
      "taban": 1967,
      "ud": 1968,
      "üen": 1969,
      "”,": 1970,
      "demasi": 1971,
      "osa": 1972,
      "envi": 1973,
      "entra": 1974,
      "encontr": 1975,
      "cient": 1976,
      "and": 1977,
      "analizar": 1978,
      "ases": 1979,
      "alo": 1980,
      "alber": 1981,
      "rea": 1982,
      "til": 1983,
      "tible": 1984,
      "ellas": 1985,
      "contar": 1986,
      "conden": 1987,
      "conce": 1988,
      "confun": 1989,
      "contenido": 1990,
      "sejo": 1991,
      "noble": 1992,
      "presa": 1993,
      "quía": 1994,
      "ima": 1995,
      "imen": 1996,
      "tengamos": 1997,
      "tendencias": 1998,
      "mie": 1999,
      "mir": 2000,
      "procla": 2001,
      "acto": 2002,
      "mula": 2003,
      "habido": 2004,
      "decirse": 2005,
      "tivamente": 2006,
      "puestos": 2007,
      "vayan": 2008,
      "hechos": 2009,
      "encima": 2010,
      "agri": 2011,
      "univer": 2012,
      "pena": 2013,
      "march": 2014,
      "monta": 2015,
      "compañero": 2016,
      "Consejo": 2017,
      "socialista": 2018,
      "salud": 2019,
      "primeras": 2020,
      "capaz": 2021,
      "crí": 2022,
      "conocer": 2023,
      "facultad": 2024,
      "fundamentales": 2025,
      "alizado": 2026,
      "clase": 2027,
      "tribu": 2028,
      "autoridad": 2029,
      "natural": 2030,
      "médico": 2031,
      "organiza": 2032,
      "tierra": 2033,
      "último": 2034,
      "factores": 2035,
      "productos": 2036,
      "Burke": 2037,
      "administra": 2038,
      "atención": 2039,
      "etapa": 2040,
      "partici": 2041,
      "volun": 2042,
      "acep": 2043,
      "víctimas": 2044,
      "soberan": 2045,
      "concesiones": 2046,
      "atóm": 2047,
      "infinidad": 2048,
      "Batista": 2049,
      "vergüen": 2050,
      "General": 2051,
      "demasiado": 2052,
      "vergüenza": 2053,
      "\",": 2054,
      "Ma": 2055,
      "apar": 2056,
      "cel": 2057,
      "ctores": 2058,
      "cál": 2059,
      "et": 2060,
      "fel": 2061,
      "fór": 2062,
      "gó": 2063,
      "gas": 2064,
      "gimen": 2065,
      "hiz": 2066,
      "oy": 2067,
      "pobre": 2068,
      "sas": 2069,
      "yec": 2070,
      "época": 2071,
      "ído": 2072,
      "lati": 2073,
      "cientos": 2074,
      "alum": 2075,
      "repetir": 2076,
      "tió": 2077,
      "timos": 2078,
      "tidad": 2079,
      "ingr": 2080,
      "confi": 2081,
      "teg": 2082,
      "amena": 2083,
      "total": 2084,
      "nom": 2085,
      "divi": 2086,
      "difer": 2087,
      "prue": 2088,
      "emb": 2089,
      "emente": 2090,
      "abas": 2091,
      "despi": 2092,
      "entemente": 2093,
      "leer": 2094,
      "superi": 2095,
      "tercer": 2096,
      "caña": 2097,
      "prove": 2098,
      "provin": 2099,
      "entan": 2100,
      "solamente": 2101,
      "República": 2102,
      "ándose": 2103,
      "respec": 2104,
      "habíamos": 2105,
      "peda": 2106,
      "venir": 2107,
      "estábamos": 2108,
      "desarrollando": 2109,
      "ropa": 2110,
      "fuerte": 2111,
      "prima": 2112,
      "pular": 2113,
      "agro": 2114,
      "fines": 2115,
      "gener": 2116,
      "discusión": 2117,
      "sentir": 2118,
      "señores": 2119,
      "ahor": 2120,
      "importantes": 2121,
      "importancia": 2122,
      "salir": 2123,
      "signi": 2124,
      "subje": 2125,
      "tismo": 2126,
      "capacidad": 2127,
      "concili": 2128,
      "propio": 2129,
      "vale": 2130,
      "ataque": 2131,
      "atacan": 2132,
      "delegados": 2133,
      "edificios": 2134,
      "juven": 2135,
      "personas": 2136,
      "hijos": 2137,
      "promo": 2138,
      "rup": 2139,
      "habría": 2140,
      "industri": 2141,
      "industrial": 2142,
      "evitar": 2143,
      "intelig": 2144,
      "familias": 2145,
      "relaciones": 2146,
      "independiente": 2147,
      "continente": 2148,
      "vincu": 2149,
      "máximo": 2150,
      "nificación": 2151,
      "aspiración": 2152,
      "determinadas": 2153,
      "investigación": 2154,
      "empleo": 2155,
      "Ahora": 2156,
      "equivo": 2157,
      "podían": 2158,
      "instituto": 2159,
      "fábrica": 2160,
      "fabe": 2161,
      "veterinaria": 2162,
      "responsabilidad": 2163,
      "constituye": 2164,
      "aplicar": 2165,
      "reunir": 2166,
      "asistencia": 2167,
      "acerca": 2168,
      "terior": 2169,
      "fortaleza": 2170,
      "seguridad": 2171,
      "cademia": 2172,
      "régimen": 2173,
      "decenas": 2174,
      "partamento": 2175,
      "perjudicamos": 2176,
      "negativas": 2177,
      "conocimientos": 2178,
      "asesin": 2179,
      "miedo": 2180,
      "organizaciones": 2181,
      "soberanía": 2182,
      "hizo": 2183,
      "An": 2184,
      "Ej": 2185,
      "Hemos": 2186,
      "Luego": 2187,
      "Mi": 2188,
      "Mu": 2189,
      "Mon": 2190,
      "Min": 2191,
      "Nadie": 2192,
      "Pr": 2193,
      "RO": 2194,
      "También": 2195,
      "Vamos": 2196,
      "blemente": 2197,
      "cl": 2198,
      "cali": 2199,
      "dé": 2200,
      "daba": 2201,
      "ete": 2202,
      "ech": 2203,
      "fo": 2204,
      "fra": 2205,
      "gre": 2206,
      "hones": 2207,
      "hora": 2208,
      "iba": 2209,
      "len": 2210,
      "mad": 2211,
      "nu": 2212,
      "rid": 2213,
      "sar": 2214,
      "tada": 2215,
      "vier": 2216,
      "zan": 2217,
      "zamos": 2218,
      "zados": 2219,
      "españ": 2220,
      "arte": 2221,
      "eras": 2222,
      "queda": 2223,
      "ciles": 2224,
      "ciencia": 2225,
      "anu": 2226,
      "aspec": 2227,
      "orías": 2228,
      "tral": 2229,
      "tio": 2230,
      "indiv": 2231,
      "ted": 2232,
      "amor": 2233,
      "sem": 2234,
      "semos": 2235,
      "según": 2236,
      "sector": 2237,
      "empresa": 2238,
      "sia": 2239,
      "sigu": 2240,
      "siendo": 2241,
      "partes": 2242,
      "idu": 2243,
      "isas": 2244,
      "pag": 2245,
      "tengo": 2246,
      "iere": 2247,
      "vivien": 2248,
      "caus": 2249,
      "pocos": 2250,
      "ece": 2251,
      "magn": 2252,
      "mil": 2253,
      "proyec": 2254,
      "exten": 2255,
      "actores": 2256,
      "Rebelde": 2257,
      "traer": 2258,
      "reser": 2259,
      "resuel": 2260,
      "distas": 2261,
      "dispuestos": 2262,
      "Cuban": 2263,
      "casas": 2264,
      "preser": 2265,
      "entren": 2266,
      "guno": 2267,
      "primas": 2268,
      "culpa": 2269,
      "abandon": 2270,
      "estará": 2271,
      "minuto": 2272,
      "libros": 2273,
      "basu": 2274,
      "ignor": 2275,
      "lími": 2276,
      "compañías": 2277,
      "adecu": 2278,
      "ninguno": 2279,
      "políticas": 2280,
      "razones": 2281,
      "precio": 2282,
      "comunismo": 2283,
      "solid": 2284,
      "buena": 2285,
      "colonial": 2286,
      "justa": 2287,
      "enemi": 2288,
      "explic": 2289,
      "preocupaciones": 2290,
      "mayoría": 2291,
      "mercado": 2292,
      "instante": 2293,
      "centros": 2294,
      "Como": 2295,
      "edio": 2296,
      "dejar": 2297,
      "agresiones": 2298,
      "enseñar": 2299,
      "imperialista": 2300,
      "pudiéramos": 2301,
      "solución": 2302,
      "ocurre": 2303,
      "empezar": 2304,
      "tendrá": 2305,
      "actividad": 2306,
      "servicio": 2307,
      "parece": 2308,
      "peligros": 2309,
      "ífico": 2310,
      "Bueno": 2311,
      "apoy": 2312,
      "apoyo": 2313,
      "criterio": 2314,
      "administr": 2315,
      "cometido": 2316,
      "fábricas": 2317,
      "simplemente": 2318,
      "privilegi": 2319,
      "difícil": 2320,
      "dónde": 2321,
      "cooperativas": 2322,
      "manifestaciones": 2323,
      "ocasión": 2324,
      "campañas": 2325,
      "prácticamente": 2326,
      "ofre": 2327,
      "Nuestro": 2328,
      "experiencia": 2329,
      "agrícola": 2330,
      "oficiales": 2331,
      "pronto": 2332,
      "beneficio": 2333,
      "aloj": 2334,
      "agricultura": 2335,
      "montañas": 2336,
      "voluntad": 2337,
      "alumnos": 2338,
      "nombre": 2339,
      "agropecu": 2340,
      "juventud": 2341,
      "Ejército": 2342,
      "Minis": 2343,
      "individu": 2344,
      "Cubana": 2345,
      "%,": 2346,
      "(..": 2347,
      "500": 2348,
      "Arg": 2349,
      "Asia": 2350,
      "Ch": 2351,
      "Cos": 2352,
      "DOS": 2353,
      "EA": 2354,
      "OEA": 2355,
      "Pue": 2356,
      "Rica": 2357,
      "Su": 2358,
      "Ser": 2359,
      "Tercer": 2360,
      "Ven": 2361,
      "agua": 2362,
      "aprove": 2363,
      "bli": 2364,
      "cemos": 2365,
      "due": 2366,
      "dremos": 2367,
      "ecido": 2368,
      "ge": 2369,
      "gol": 2370,
      "ham": 2371,
      "jue": 2372,
      "jor": 2373,
      "lf": 2374,
      "ler": 2375,
      "llo": 2376,
      "pal": 2377,
      "sali": 2378,
      "ude": 2379,
      "áles": 2380,
      "demo": 2381,
      "enor": 2382,
      "entien": 2383,
      "enrique": 2384,
      "argu": 2385,
      "cine": 2386,
      "anim": 2387,
      "asamblea": 2388,
      "adi": 2389,
      "recu": 2390,
      "rección": 2391,
      "realiz": 2392,
      "elia": 2393,
      "inte": 2394,
      "inver": 2395,
      "indefen": 2396,
      "ingen": 2397,
      "inau": 2398,
      "información": 2399,
      "conf": 2400,
      "conqu": 2401,
      "consu": 2402,
      "conclu": 2403,
      "consig": 2404,
      "semi": 2405,
      "noti": 2406,
      "cuo": 2407,
      "cuatro": 2408,
      "empi": 2409,
      "abor": 2410,
      "absur": 2411,
      "siete": 2412,
      "sitio": 2413,
      "obar": 2414,
      "iso": 2415,
      "pac": 2416,
      "leo": 2417,
      "leche": 2418,
      "comprom": 2419,
      "impres": 2420,
      "imposible": 2421,
      "impedir": 2422,
      "terna": 2423,
      "grado": 2424,
      "vivi": 2425,
      "perros": 2426,
      "racional": 2427,
      "proposición": 2428,
      "excep": 2429,
      "moder": 2430,
      "motivo": 2431,
      "sovié": 2432,
      "duras": 2433,
      "nie": 2434,
      "hablado": 2435,
      "creencia": 2436,
      "trabaja": 2437,
      "largo": 2438,
      "vencer": 2439,
      "presu": 2440,
      "garanti": 2441,
      "poli": 2442,
      "hacerlo": 2443,
      "aliado": 2444,
      "alización": 2445,
      "mediante": 2446,
      "publ": 2447,
      "ponemos": 2448,
      "plic": 2449,
      "única": 2450,
      "sociales": 2451,
      "ficio": 2452,
      "producir": 2453,
      "pasar": 2454,
      "cendi": 2455,
      "generación": 2456,
      "darle": 2457,
      "llen": 2458,
      "señal": 2459,
      "norteamericanas": 2460,
      "ficaciones": 2461,
      "planificación": 2462,
      "luchando": 2463,
      "propia": 2464,
      "atacar": 2465,
      "ataques": 2466,
      "facultades": 2467,
      "humano": 2468,
      "Compañ": 2469,
      "edificaciones": 2470,
      "jugando": 2471,
      "hicieron": 2472,
      "labora": 2473,
      "expresar": 2474,
      "podrá": 2475,
      "podríamos": 2476,
      "imperialistas": 2477,
      "sacrificar": 2478,
      "surgió": 2479,
      "niveles": 2480,
      "instructores": 2481,
      "factor": 2482,
      "sangre": 2483,
      "esperanza": 2484,
      "prác": 2485,
      "aspiraciones": 2486,
      "reuniones": 2487,
      "justicia": 2488,
      "alcanzado": 2489,
      "cuántos": 2490,
      "viene": 2491,
      "decía": 2492,
      "inversión": 2493,
      "rentabilidad": 2494,
      "difíciles": 2495,
      "utilizar": 2496,
      "desemple": 2497,
      "consecuencia": 2498,
      "analfabe": 2499,
      "asegu": 2500,
      "representantes": 2501,
      "ísimo": 2502,
      "puntos": 2503,
      "palabras": 2504,
      "traición": 2505,
      "sentimientos": 2506,
      "tremenda": 2507,
      "comerci": 2508,
      "divulgar": 2509,
      "horas": 2510,
      "tecnología": 2511,
      "cracia": 2512,
      "latifun": 2513,
      "despilf": 2514,
      "subjetiv": 2515,
      "promover": 2516,
      "español": 2517,
      "enemigo": 2518,
      "(...)": 2519,
      "Argelia": 2520,
      "China": 2521,
      "Costa": 2522,
      "hambre": 2523,
      "jornada": 2524,
      "inaugu": 2525,
      "\".": 2526,
      "100": 2527,
      "600": 2528,
      "Aquel": 2529,
      "ADOS": 2530,
      "Ci": 2531,
      "Eu": 2532,
      "Era": 2533,
      "Fran": 2534,
      "GADOS": 2535,
      "Hab": 2536,
      "Hasta": 2537,
      "Hoy": 2538,
      "LON": 2539,
      "Mé": 2540,
      "Mar": 2541,
      "Pres": 2542,
      "PRO": 2543,
      "Tru": 2544,
      "aprob": 2545,
      "atema": 2546,
      "brar": 2547,
      "cter": 2548,
      "cando": 2549,
      "ed": 2550,
      "ego": 2551,
      "edades": 2552,
      "fon": 2553,
      "fón": 2554,
      "facción": 2555,
      "iente": 2556,
      "jil": 2557,
      "ló": 2558,
      "llu": 2559,
      "sent": 2560,
      "stitu": 2561,
      "tú": 2562,
      "tari": 2563,
      "xima": 2564,
      "ási": 2565,
      "área": 2566,
      "ácter": 2567,
      "ñana": 2568,
      "esar": 2569,
      "estra": 2570,
      "ens": 2571,
      "entu": 2572,
      "cis": 2573,
      "cidos": 2574,
      "asfi": 2575,
      "alre": 2576,
      "alqui": 2577,
      "trar": 2578,
      "trado": 2579,
      "admi": 2580,
      "ref": 2581,
      "recor": 2582,
      "tipos": 2583,
      "invi": 2584,
      "inform": 2585,
      "incendi": 2586,
      "convier": 2587,
      "temá": 2588,
      "docum": 2589,
      "seis": 2590,
      "digamos": 2591,
      "cuid": 2592,
      "cuáles": 2593,
      "porqué": 2594,
      "sias": 2595,
      "simi": 2596,
      "obs": 2597,
      "descu": 2598,
      "cionar": 2599,
      "sufici": 2600,
      "rato": 2601,
      "ración": 2602,
      "ries": 2603,
      "mañana": 2604,
      "miento": 2605,
      "mirante": 2606,
      "miemb": 2607,
      "litar": 2608,
      "liares": 2609,
      "soñ": 2610,
      "acor": 2611,
      "prepara": 2612,
      "pretexto": 2613,
      "habi": 2614,
      "hablando": 2615,
      "tarde": 2616,
      "derro": 2617,
      "usar": 2618,
      "peores": 2619,
      "petró": 2620,
      "quiero": 2621,
      "decirles": 2622,
      "lanca": 2623,
      "lanzar": 2624,
      "veía": 2625,
      "presente": 2626,
      "media": 2627,
      "ganar": 2628,
      "carácter": 2629,
      "necesariamente": 2630,
      "estudiando": 2631,
      "interesados": 2632,
      "aquello": 2633,
      "donos": 2634,
      "libres": 2635,
      "librar": 2636,
      "discutiendo": 2637,
      "económicamente": 2638,
      "socialistas": 2639,
      "importan": 2640,
      "militante": 2641,
      "universidades": 2642,
      "fusi": 2643,
      "seguro": 2644,
      "monopolistas": 2645,
      "tele": 2646,
      "recuerdo": 2647,
      "organismos": 2648,
      "construc": 2649,
      "trans": 2650,
      "precios": 2651,
      "éctr": 2652,
      "materia": 2653,
      "tiempos": 2654,
      "siglo": 2655,
      "subversi": 2656,
      "plani": 2657,
      "diría": 2658,
      "colonias": 2659,
      "existir": 2660,
      "juz": 2661,
      "expresarse": 2662,
      "fundamentalmente": 2663,
      "hospital": 2664,
      "calum": 2665,
      "promedio": 2666,
      "pudieran": 2667,
      "legí": 2668,
      "surge": 2669,
      "distintas": 2670,
      "extranjero": 2671,
      "planteado": 2672,
      "contrarrevolucionarios": 2673,
      "últimos": 2674,
      "tendrán": 2675,
      "sentimos": 2676,
      "aplaude": 2677,
      "preocuparnos": 2678,
      "tomando": 2679,
      "equipos": 2680,
      "dedicar": 2681,
      "riquezas": 2682,
      "desarrollarse": 2683,
      "tareas": 2684,
      "intelectual": 2685,
      "radio": 2686,
      "decíamos": 2687,
      "tecimientos": 2688,
      "objetivos": 2689,
      "conduc": 2690,
      "veterinarios": 2691,
      "satisfacción": 2692,
      "agredido": 2693,
      "constituyen": 2694,
      "artística": 2695,
      "consecuencias": 2696,
      "Guatema": 2697,
      "funcionar": 2698,
      "laboral": 2699,
      "renunciar": 2700,
      "zona": 2701,
      "zonas": 2702,
      "rectificación": 2703,
      "sinceramente": 2704,
      "engañ": 2705,
      "destino": 2706,
      "consciente": 2707,
      "azucarera": 2708,
      "necesitamos": 2709,
      "posibilidad": 2710,
      "recibido": 2711,
      "infantil": 2712,
      "Castro": 2713,
      "naturaleza": 2714,
      "participación": 2715,
      "fórmula": 2716,
      "respecto": 2717,
      "vinculación": 2718,
      "Moncada": 2719,
      "Prim": 2720,
      "causa": 2721,
      "agropecuaria": 2722,
      "aprovech": 2723,
      "enorme": 2724,
      "práctica": 2725,
      "despilfarro": 2726,
      "subjetivismo": 2727,
      "Europa": 2728,
      "LONGADOS": 2729,
      "PROLONGADOS": 2730,
      "Trujil": 2731,
      "lluvi": 2732,
      "entusias": 2733,
      "alrede": 2734,
      "petróleo": 2735,
      "calumni": 2736,
      "Guatemala": 2737,
      "Trujillo": 2738,
      ".”": 2739,
      "15": 2740,
      "25": 2741,
      "Así": 2742,
      "Blanca": 2743,
      "Ese": 2744,
      "Hon": 2745,
      "Mas": 2746,
      "Per": 2747,
      "Tra": 2748,
      "apreci": 2749,
      "blo": 2750,
      "biera": 2751,
      "clas": 2752,
      "carr": 2753,
      "dando": 2754,
      "etas": 2755,
      "gue": 2756,
      "gencia": 2757,
      "hec": 2758,
      "ltura": 2759,
      "ment": 2760,
      "mín": 2761,
      "nas": 2762,
      "opti": 2763,
      "tadas": 2764,
      "tario": 2765,
      "vali": 2766,
      "xico": 2767,
      "yeron": 2768,
      "éxi": 2769,
      "ír": 2770,
      "ímu": 2771,
      "ópti": 2772,
      "defici": 2773,
      "arla": 2774,
      "ladas": 2775,
      "quedar": 2776,
      "quedó": 2777,
      "cios": 2778,
      "cimos": 2779,
      "cipl": 2780,
      "ani": 2781,
      "antos": 2782,
      "orgu": 2783,
      "ale": 2784,
      "alterna": 2785,
      "tras": 2786,
      "tradi": 2787,
      "adic": 2788,
      "reac": 2789,
      "repi": 2790,
      "relación": 2791,
      "rebel": 2792,
      "eléctr": 2793,
      "inta": 2794,
      "indis": 2795,
      "incre": 2796,
      "inevi": 2797,
      "inici": 2798,
      "concen": 2799,
      "teór": 2800,
      "seman": 2801,
      "segun": 2802,
      "semej": 2803,
      "sequía": 2804,
      "dicen": 2805,
      "direc": 2806,
      "cuy": 2807,
      "emis": 2808,
      "embaj": 2809,
      "estén": 2810,
      "estímu": 2811,
      "pago": 2812,
      "desper": 2813,
      "puer": 2814,
      "compr": 2815,
      "compe": 2816,
      "comisión": 2817,
      "impren": 2818,
      "ierra": 2819,
      "adop": 2820,
      "tera": 2821,
      "terios": 2822,
      "tualmente": 2823,
      "gro": 2824,
      "perío": 2825,
      "mag": 2826,
      "Esos": 2827,
      "Esas": 2828,
      "propu": 2829,
      "ental": 2830,
      "expor": 2831,
      "excel": 2832,
      "acab": 2833,
      "metró": 2834,
      "pira": 2835,
      "naciones": 2836,
      "tantos": 2837,
      "respuesta": 2838,
      "torios": 2839,
      "habló": 2840,
      "cerca": 2841,
      "ciru": 2842,
      "Cultura": 2843,
      "cionarios": 2844,
      "creen": 2845,
      "creado": 2846,
      "creación": 2847,
      "pedi": 2848,
      "trabajado": 2849,
      "cohe": 2850,
      "vengan": 2851,
      "venido": 2852,
      "testi": 2853,
      "quitar": 2854,
      "desarrollado": 2855,
      "pose": 2856,
      "hacerse": 2857,
      "escla": 2858,
      "carne": 2859,
      "sobrecumplirlo": 2860,
      "pudo": 2861,
      "munici": 2862,
      "culp": 2863,
      "bandera": 2864,
      "estudian": 2865,
      "pone": 2866,
      "granjas": 2867,
      "plena": 2868,
      "realidades": 2869,
      "minas": 2870,
      "masa": 2871,
      "preocupan": 2872,
      "llegó": 2873,
      "fru": 2874,
      "Quiere": 2875,
      "pasa": 2876,
      "generos": 2877,
      "cantidad": 2878,
      "guerr": 2879,
      "guerras": 2880,
      "saciones": 2881,
      "auxi": 2882,
      "correspon": 2883,
      "pele": 2884,
      "clara": 2885,
      "seguros": 2886,
      "cluso": 2887,
      "avion": 2888,
      "televi": 2889,
      "ciertos": 2890,
      "organismo": 2891,
      "construido": 2892,
      "nuevas": 2893,
      "patrio": 2894,
      "coloniz": 2895,
      "justo": 2896,
      "conocemos": 2897,
      "existencia": 2898,
      "expresado": 2899,
      "aspirar": 2900,
      "faltar": 2901,
      "eficiente": 2902,
      "jeron": 2903,
      "influ": 2904,
      "pudiera": 2905,
      "considera": 2906,
      "honor": 2907,
      "ocurrido": 2908,
      "continu": 2909,
      "instrumento": 2910,
      "instrumentos": 2911,
      "sistemá": 2912,
      "logrado": 2913,
      "preparar": 2914,
      "establecer": 2915,
      "determinado": 2916,
      "investigaciones": 2917,
      "Incluso": 2918,
      "elev": 2919,
      "convertir": 2920,
      "operaciones": 2921,
      "íficos": 2922,
      "alcanzar": 2923,
      "tampoco": 2924,
      "profesion": 2925,
      "incursiones": 2926,
      "comenzó": 2927,
      "dirigentes": 2928,
      "principios": 2929,
      "piensa": 2930,
      "Todos": 2931,
      "atras": 2932,
      "entendemos": 2933,
      "enfrent": 2934,
      "enfrentar": 2935,
      "cooperativa": 2936,
      "1986": 2937,
      "ocasiones": 2938,
      "campaña": 2939,
      "poderoso": 2940,
      "aéreas": 2941,
      "necesita": 2942,
      "relacionadas": 2943,
      "enferme": 2944,
      "amenaz": 2945,
      "cumplimos": 2946,
      "defiende": 2947,
      "selección": 2948,
      "hubiese": 2949,
      "tranquilamente": 2950,
      "periódicos": 2951,
      "albergar": 2952,
      "confundir": 2953,
      "universal": 2954,
      "cálculo": 2955,
      "abastecimiento": 2956,
      "superiores": 2957,
      "provincia": 2958,
      "pedazo": 2959,
      "ahorrar": 2960,
      "ridícu": 2961,
      "aspectos": 2962,
      "vivienda": 2963,
      "privilegiados": 2964,
      "integr": 2965,
      "ingenier": 2966,
      "conquis": 2967,
      "consigna": 2968,
      "semilla": 2969,
      "noticias": 2970,
      "cuota": 2971,
      "México": 2972,
      "Presidente": 2973,
      "egoís": 2974,
      "tarifas": 2975,
      "obstá": 2976,
      "preparación": 2977,
      "fusiles": 2978,
      "conducta": 2979,
      "lluvias": 2980,
      "entusiasmo": 2981,
      "alrededor": 2982,
      "Honduras": 2983,
      "clases": 2984,
      "rebeldes": 2985,
      "inevit": 2986,
      "concentra": 2987,
      "imprenta": 2988,
      "metrópoli": 2989,
      "cohetes": 2990,
      "televisión": 2991,
      "14": 2992,
      "150": 2993,
      "70": 2994,
      "90": 2995,
      "Aun": 2996,
      "Academia": 2997,
      "Car": 2998,
      "Di": 2999,
      "Dec": 3000,
      "Gran": 3001,
      "Ha": 3002,
      "Har": 3003,
      "Le": 3004,
      "Ni": 3005,
      "Ori": 3006,
      "Sec": 3007,
      "Santo": 3008,
      "Sierra": 3009,
      "Tien": 3010,
      "UP": 3011,
      "aj": 3012,
      "ago": 3013,
      "bó": 3014,
      "bemos": 3015,
      "bási": 3016,
      "cía": 3017,
      "damos": 3018,
      "eos": 3019,
      "fues": 3020,
      "ger": 3021,
      "gel": 3022,
      "ito": 3023,
      "ider": 3024,
      "itos": 3025,
      "iban": 3026,
      "llos": 3027,
      "lic": 3028,
      "lidad": 3029,
      "mí": 3030,
      "mú": 3031,
      "muestr": 3032,
      "muerte": 3033,
      "memente": 3034,
      "oc": 3035,
      "pesos": 3036,
      "sue": 3037,
      "sor": 3038,
      "suel": 3039,
      "ts": 3040,
      "tía": 3041,
      "tonces": 3042,
      "vari": 3043,
      "vales": 3044,
      "vían": 3045,
      "yó": 3046,
      "ár": 3047,
      "áli": 3048,
      "ésemos": 3049,
      "deba": 3050,
      "deman": 3051,
      "desea": 3052,
      "departamento": 3053,
      "enin": 3054,
      "encu": 3055,
      "ueve": 3056,
      "aremos": 3057,
      "arqui": 3058,
      "quede": 3059,
      "queza": 3060,
      "ciento": 3061,
      "antán": 3062,
      "análi": 3063,
      "oría": 3064,
      "alent": 3065,
      "almirante": 3066,
      "tre": 3067,
      "adá": 3068,
      "recono": 3069,
      "república": 3070,
      "rebaj": 3071,
      "tidos": 3072,
      "inas": 3073,
      "intr": 3074,
      "indi": 3075,
      "ingreso": 3076,
      "congreso": 3077,
      "contem": 3078,
      "teatro": 3079,
      "dole": 3080,
      "dolor": 3081,
      "amo": 3082,
      "ónde": 3083,
      "dida": 3084,
      "dientes": 3085,
      "cula": 3086,
      "ológ": 3087,
      "sica": 3088,
      "pagan": 3089,
      "pacio": 3090,
      "desen": 3091,
      "deser": 3092,
      "despo": 3093,
      "descan": 3094,
      "levan": 3095,
      "combus": 3096,
      "compatrio": 3097,
      "impi": 3098,
      "ieran": 3099,
      "perio": 3100,
      "categ": 3101,
      "popular": 3102,
      "rió": 3103,
      "mación": 3104,
      "mitad": 3105,
      "Españ": 3106,
      "profun": 3107,
      "program": 3108,
      "exac": 3109,
      "expuesto": 3110,
      "exponer": 3111,
      "sola": 3112,
      "soviética": 3113,
      "actos": 3114,
      "acobar": 3115,
      "metral": 3116,
      "preten": 3117,
      "trato": 3118,
      "tratado": 3119,
      "bala": 3120,
      "ándonos": 3121,
      "chocado": 3122,
      "icación": 3123,
      "navales": 3124,
      "ciaciones": 3125,
      "dudas": 3126,
      "resol": 3127,
      "probado": 3128,
      "taron": 3129,
      "discrimin": 3130,
      "distribu": 3131,
      "discipl": 3132,
      "Cuál": 3133,
      "peor": 3134,
      "arran": 3135,
      "trabaje": 3136,
      "Estamos": 3137,
      "venida": 3138,
      "venider": 3139,
      "debía": 3140,
      "ambiente": 3141,
      "filos": 3142,
      "veo": 3143,
      "present": 3144,
      "presentes": 3145,
      "presidente": 3146,
      "desarrolle": 3147,
      "aliento": 3148,
      "necesarios": 3149,
      "cambala": 3150,
      "plenos": 3151,
      "estarán": 3152,
      "pensab": 3153,
      "voy": 3154,
      "vocer": 3155,
      "defini": 3156,
      "prensa": 3157,
      "buro": 3158,
      "Quiz": 3159,
      "paso": 3160,
      "pasiones": 3161,
      "Entonces": 3162,
      "defendiendo": 3163,
      "ign": 3164,
      "cubanas": 3165,
      "genera": 3166,
      "seno": 3167,
      "alguno": 3168,
      "auto": 3169,
      "corrup": 3170,
      "hubiera": 3171,
      "control": 3172,
      "contradic": 3173,
      "llaman": 3174,
      "planes": 3175,
      "salario": 3176,
      "ideal": 3177,
      "cierta": 3178,
      "ciertas": 3179,
      "razon": 3180,
      "bienes": 3181,
      "conspi": 3182,
      "entación": 3183,
      "situadas": 3184,
      "sigue": 3185,
      "agentes": 3186,
      "luchan": 3187,
      "espec": 3188,
      "comprenden": 3189,
      "comprendemos": 3190,
      "propios": 3191,
      "ciudadano": 3192,
      "públicos": 3193,
      "mercen": 3194,
      "mercados": 3195,
      "existe": 3196,
      "campesino": 3197,
      "defenderse": 3198,
      "humanos": 3199,
      "recib": 3200,
      "lugares": 3201,
      "pensando": 3202,
      "Debemos": 3203,
      "edificio": 3204,
      "juici": 3205,
      "deja": 3206,
      "persona": 3207,
      "agresi": 3208,
      "morir": 3209,
      "calle": 3210,
      "prior": 3211,
      "cambiando": 3212,
      "divisas": 3213,
      "alizados": 3214,
      "trib": 3215,
      "triun": 3216,
      "tricidad": 3217,
      "sacrifica": 3218,
      "infali": 3219,
      "concepción": 3220,
      "naturalmente": 3221,
      "industrias": 3222,
      "plantea": 3223,
      "hacía": 3224,
      "últimas": 3225,
      "error": 3226,
      "sistema": 3227,
      "tendría": 3228,
      "preparando": 3229,
      "verdadero": 3230,
      "actuar": 3231,
      "actuales": 3232,
      "determinados": 3233,
      "unciar": 3234,
      "permitan": 3235,
      "investigar": 3236,
      "acusan": 3237,
      "ezas": 3238,
      "elevar": 3239,
      "firmemente": 3240,
      "preocupado": 3241,
      "cuántas": 3242,
      "podíamos": 3243,
      "xiar": 3244,
      "ficado": 3245,
      "miserables": 3246,
      "correcta": 3247,
      "simpa": 3248,
      "coloniaje": 3249,
      "privilegio": 3250,
      "dirigir": 3251,
      "reducir": 3252,
      "ampliamente": 3253,
      "combati": 3254,
      "considerar": 3255,
      "Todo": 3256,
      "Guantán": 3257,
      "debilitar": 3258,
      "completo": 3259,
      "procedentes": 3260,
      "aéreo": 3261,
      "necesitan": 3262,
      "esenciales": 3263,
      "dominio": 3264,
      "palabra": 3265,
      "respeto": 3266,
      "sentimiento": 3267,
      "disfrazado": 3268,
      "afirmar": 3269,
      "querían": 3270,
      "adquirir": 3271,
      "próxima": 3272,
      "propone": 3273,
      "cumplimiento": 3274,
      "conscientes": 3275,
      "explicarles": 3276,
      "especialista": 3277,
      "defienden": 3278,
      "heroico": 3279,
      "alimentos": 3280,
      "llevó": 3281,
      "franqueza": 3282,
      "negociaciones": 3283,
      "capacitado": 3284,
      "existía": 3285,
      "periódico": 3286,
      "acontecimiento": 3287,
      "acontecimientos": 3288,
      "ilusiones": 3289,
      "ramas": 3290,
      "científico": 3291,
      "crítica": 3292,
      "atómicas": 3293,
      "Maestra": 3294,
      "feliz": 3295,
      "ingresos": 3296,
      "amenaza": 3297,
      "pruebas": 3298,
      "significar": 3299,
      "honesto": 3300,
      "sembr": 3301,
      "pagaban": 3302,
      "reservas": 3303,
      "límite": 3304,
      "individuo": 3305,
      "Puede": 3306,
      "dueños": 3307,
      "democracia": 3308,
      "argumentos": 3309,
      "animales": 3310,
      "recuper": 3311,
      "conflic": 3312,
      "empieza": 3313,
      "vivido": 3314,
      "asegurar": 3315,
      "latifundistas": 3316,
      "asfixiar": 3317,
      "refle": 3318,
      "incendiarias": 3319,
      "telefón": 3320,
      "legítimos": 3321,
      "calumnias": 3322,
      "hectá": 3323,
      "deficiencias": 3324,
      "alternativa": 3325,
      "teóricos": 3326,
      "semejante": 3327,
      "despertar": 3328,
      "período": 3329,
      "municipi": 3330,
      "auxiliares": 3331,
      "avionetas": 3332,
      "profesional": 3333,
      "obstáculos": 3334,
      "concentración": 3335,
      "Granma": 3336,
      "Oriente": 3337,
      "Secre": 3338,
      "básicas": 3339,
      "música": 3340,
      "arquitec": 3341,
      "análisis": 3342,
      "combustible": 3343,
      "España": 3344,
      "exactamente": 3345,
      "definitiva": 3346,
      "Quizás": 3347,
      "Guantánamo": 3348,
      "200": 3349,
      "30": 3350,
      "400": 3351,
      "BL": 3352,
      "Can": 3353,
      "Cari": 3354,
      "Ex": 3355,
      "EBL": 3356,
      "Fue": 3357,
      "Hu": 3358,
      "Is": 3359,
      "Lenin": 3360,
      "Mun": 3361,
      "Nunca": 3362,
      "PU": 3363,
      "Ra": 3364,
      "Rosa": 3365,
      "Sobre": 3366,
      "Sencillamente": 3367,
      "XX": 3368,
      "apara": 3369,
      "afi": 3370,
      "academia": 3371,
      "bom": 3372,
      "có": 3373,
      "cem": 3374,
      "cuer": 3375,
      "cora": 3376,
      "cír": 3377,
      "díamos": 3378,
      "elabor": 3379,
      "eladas": 3380,
      "frir": 3381,
      "gob": 3382,
      "gada": 3383,
      "gesti": 3384,
      "hemis": 3385,
      "ili": 3386,
      "ización": 3387,
      "mó": 3388,
      "madas": 3389,
      "ote": 3390,
      "oprim": 3391,
      "ojos": 3392,
      "rá": 3393,
      "rin": 3394,
      "ría": 3395,
      "rado": 3396,
      "sales": 3397,
      "tente": 3398,
      "tén": 3399,
      "tísi": 3400,
      "urg": 3401,
      "udades": 3402,
      "vamente": 3403,
      "zón": 3404,
      "zás": 3405,
      "ág": 3406,
      "ítu": 3407,
      "ídos": 3408,
      "ífica": 3409,
      "útil": 3410,
      "”;": 3411,
      "escu": 3412,
      "esco": 3413,
      "esencia": 3414,
      "encar": 3415,
      "uela": 3416,
      "ará": 3417,
      "aran": 3418,
      "aría": 3419,
      "argel": 3420,
      "ern": 3421,
      "later": 3422,
      "lagro": 3423,
      "queo": 3424,
      "civi": 3425,
      "cidas": 3426,
      "ciudades": 3427,
      "anía": 3428,
      "ancho": 3429,
      "anzas": 3430,
      "anterior": 3431,
      "asomb": 3432,
      "ori": 3433,
      "alde": 3434,
      "alquiera": 3435,
      "trás": 3436,
      "trus": 3437,
      "tractores": 3438,
      "unista": 3439,
      "adver": 3440,
      "rei": 3441,
      "repar": 3442,
      "regr": 3443,
      "reco": 3444,
      "reún": 3445,
      "refer": 3446,
      "revista": 3447,
      "tiera": 3448,
      "ticamente": 3449,
      "elo": 3450,
      "elem": 3451,
      "inmen": 3452,
      "incor": 3453,
      "indig": 3454,
      "inmedia": 3455,
      "concre": 3456,
      "convir": 3457,
      "ame": 3458,
      "amis": 3459,
      "nota": 3460,
      "dió": 3461,
      "diar": 3462,
      "dial": 3463,
      "dimen": 3464,
      "dieron": 3465,
      "dirección": 3466,
      "cuya": 3467,
      "cuál": 3468,
      "emigr": 3469,
      "estal": 3470,
      "porán": 3471,
      "simos": 3472,
      "sienta": 3473,
      "obe": 3474,
      "obser": 3475,
      "parar": 3476,
      "quen": 3477,
      "hagan": 3478,
      "ice": 3479,
      "ical": 3480,
      "pagamos": 3481,
      "cionales": 3482,
      "leído": 3483,
      "sufr": 3484,
      "sufrir": 3485,
      "compen": 3486,
      "comien": 3487,
      "imas": 3488,
      "chas": 3489,
      "tentes": 3490,
      "tendremos": 3491,
      "ierte": 3492,
      "teridad": 3493,
      "teria": 3494,
      "perdido": 3495,
      "cap": 3496,
      "cañ": 3497,
      "caos": 3498,
      "caciones": 3499,
      "cayeron": 3500,
      "ecer": 3501,
      "rios": 3502,
      "mala": 3503,
      "maciones": 3504,
      "milagro": 3505,
      "Este": 3506,
      "progreso": 3507,
      "proteg": 3508,
      "propagan": 3509,
      "entales": 3510,
      "bió": 3511,
      "exhi": 3512,
      "mov": 3513,
      "motivos": 3514,
      "verán": 3515,
      "solos": 3516,
      "predi": 3517,
      "prefer": 3518,
      "preuniversitaria": 3519,
      "traid": 3520,
      "pide": 3521,
      "ándo": 3522,
      "ánimo": 3523,
      "tantas": 3524,
      "ciación": 3525,
      "daño": 3526,
      "resi": 3527,
      "resolv": 3528,
      "respal": 3529,
      "torio": 3530,
      "disgus": 3531,
      "adap": 3532,
      "manten": 3533,
      "mantiene": 3534,
      "mantuvo": 3535,
      "Cualquiera": 3536,
      "dental": 3537,
      "usted": 3538,
      "crean": 3539,
      "cretar": 3540,
      "trabajos": 3541,
      "costó": 3542,
      "quías": 3543,
      "interpre": 3544,
      "interesa": 3545,
      "venta": 3546,
      "decirlo": 3547,
      "guar": 3548,
      "vean": 3549,
      "forme": 3550,
      "formas": 3551,
      "quizás": 3552,
      "posteridad": 3553,
      "polic": 3554,
      "roe": 3555,
      "entrar": 3556,
      "hacerlas": 3557,
      "aliados": 3558,
      "estemos": 3559,
      "estudia": 3560,
      "encio": 3561,
      "ponga": 3562,
      "pongan": 3563,
      "ocupación": 3564,
      "estilo": 3565,
      "econom": 3566,
      "estaremos": 3567,
      "minu": 3568,
      "vocación": 3569,
      "llega": 3570,
      "llegado": 3571,
      "marx": 3572,
      "marcha": 3573,
      "maravi": 3574,
      "defin": 3575,
      "produce": 3576,
      "bur": 3577,
      "Ellos": 3578,
      "ayer": 3579,
      "posibles": 3580,
      "pasos": 3581,
      "libro": 3582,
      "final": 3583,
      "financi": 3584,
      "hogar": 3585,
      "canal": 3586,
      "guerri": 3587,
      "discuta": 3588,
      "discusiones": 3589,
      "seña": 3590,
      "negr": 3591,
      "hubo": 3592,
      "humil": 3593,
      "contrario": 3594,
      "llama": 3595,
      "políticos": 3596,
      "barcos": 3597,
      "barco": 3598,
      "claramente": 3599,
      "plique": 3600,
      "recla": 3601,
      "constancia": 3602,
      "capitalismo": 3603,
      "histeria": 3604,
      "situar": 3605,
      "materias": 3606,
      "tistas": 3607,
      "ejemp": 3608,
      "órgan": 3609,
      "concibió": 3610,
      "propiet": 3611,
      "propiedades": 3612,
      "inoc": 3613,
      "militarismo": 3614,
      "facil": 3615,
      "existen": 3616,
      "centrales": 3617,
      "delegaciones": 3618,
      "Comunista": 3619,
      "Departamento": 3620,
      "dejado": 3621,
      "depende": 3622,
      "personales": 3623,
      "pregunta": 3624,
      "moral": 3625,
      "cabe": 3626,
      "privado": 3627,
      "cambios": 3628,
      "rur": 3629,
      "liberarse": 3630,
      "Algun": 3631,
      "conceptos": 3632,
      "habrían": 3633,
      "industria": 3634,
      "surgido": 3635,
      "...”": 3636,
      "distinta": 3637,
      "aprendan": 3638,
      "aprendiendo": 3639,
      "honest": 3640,
      "honestos": 3641,
      "planteó": 3642,
      "organizar": 3643,
      "ocurrir": 3644,
      "empezaron": 3645,
      "esfuerzos": 3646,
      "ículos": 3647,
      "actitudes": 3648,
      "lograr": 3649,
      "preparado": 3650,
      "preparados": 3651,
      "mecán": 3652,
      "some": 3653,
      "esperar": 3654,
      "establece": 3655,
      "establecido": 3656,
      "resultados": 3657,
      "pequeños": 3658,
      "cinas": 3659,
      "estética": 3660,
      "permita": 3661,
      "permitir": 3662,
      "justificar": 3663,
      "acusar": 3664,
      "ezuela": 3665,
      "elevado": 3666,
      "tomó": 3667,
      "tomado": 3668,
      "empleado": 3669,
      "United": 3670,
      "íficas": 3671,
      "dedicados": 3672,
      "artículos": 3673,
      "tremendo": 3674,
      "regla": 3675,
      "consejo": 3676,
      "superar": 3677,
      "riqueza": 3678,
      "muchachos": 3679,
      "formado": 3680,
      "preocupados": 3681,
      "preocupaban": 3682,
      "avanza": 3683,
      "convenio": 3684,
      "convencida": 3685,
      "obligación": 3686,
      "histórica": 3687,
      "incurrido": 3688,
      "absoluta": 3689,
      "destrucción": 3690,
      "comenzaron": 3691,
      "olvidar": 3692,
      "hermano": 3693,
      "Después": 3694,
      "rentables": 3695,
      "satisfac": 3696,
      "agredir": 3697,
      "artístico": 3698,
      "artísticas": 3699,
      "atre": 3700,
      "entender": 3701,
      "armamen": 3702,
      "electricidad": 3703,
      "circunstancia": 3704,
      "Popular": 3705,
      "decisión": 3706,
      "entera": 3707,
      "entero": 3708,
      "tememos": 3709,
      "completamente": 3710,
      "poderosos": 3711,
      "bombardeos": 3712,
      "prácticas": 3713,
      "ofía": 3714,
      "declaraciones": 3715,
      "rectificar": 3716,
      "esencial": 3717,
      "inicia": 3718,
      "estuvo": 3719,
      "sirve": 3720,
      "experiencias": 3721,
      "agrícolas": 3722,
      "disfrazados": 3723,
      "fascis": 3724,
      "toneladas": 3725,
      "vuelos": 3726,
      "engaño": 3727,
      "próximo": 3728,
      "destinos": 3729,
      "comercio": 3730,
      "divulgación": 3731,
      "especialistas": 3732,
      "heroica": 3733,
      "victoria": 3734,
      "alimentación": 3735,
      "posibilidades": 3736,
      "capacitación": 3737,
      "existían": 3738,
      "representación": 3739,
      "infantiles": 3740,
      "corrompan": 3741,
      "ilusión": 3742,
      "encontró": 3743,
      "condenar": 3744,
      "proclamar": 3745,
      "universales": 3746,
      "críticas": 3747,
      "aceptar": 3748,
      "atómica": 3749,
      "pobreza": 3750,
      "división": 3751,
      "prueba": 3752,
      "tercera": 3753,
      "industrialmente": 3754,
      "equivocado": 3755,
      "amorti": 3756,
      "basura": 3757,
      "adecuada": 3758,
      "solidari": 3759,
      "colonialistas": 3760,
      "Ministro": 3761,
      "Venezuela": 3762,
      "leres": 3763,
      "entiende": 3764,
      "realizando": 3765,
      "indefenso": 3766,
      "absurdo": 3767,
      "soviético": 3768,
      "señalar": 3769,
      "Compañía": 3770,
      "laboración": 3771,
      "desempleo": 3772,
      "comercial": 3773,
      "Ciencias": 3774,
      "Había": 3775,
      "sentía": 3776,
      "ensay": 3777,
      "alquileres": 3778,
      "recordar": 3779,
      "suficiente": 3780,
      "subversión": 3781,
      "juzgar": 3782,
      "Traidores": 3783,
      "apreciar": 3784,
      "mínimo": 3785,
      "optim": 3786,
      "éxito": 3787,
      "orgullos": 3788,
      "trascen": 3789,
      "indispensab": 3790,
      "increí": 3791,
      "semana": 3792,
      "embajada": 3793,
      "estímulo": 3794,
      "competencia": 3795,
      "piratas": 3796,
      "testigos": 3797,
      "culpables": 3798,
      "ridículo": 3799,
      "ingeniería": 3800,
      "conquistar": 3801,
      "Aunque": 3802,
      "UPI": 3803,
      "ajenos": 3804,
      "fuese": 3805,
      "introm": 3806,
      "contemporán": 3807,
      "compatriotas": 3808,
      "categorías": 3809,
      "resolviendo": 3810,
      "disciplina": 3811,
      "filosofía": 3812,
      "cambalache": 3813,
      "generaciones": 3814,
      "corrupción": 3815,
      "tribuna": 3816,
      "triunfo": 3817,
      "simpati": 3818,
      "conflicto": 3819,
      "hectáreas": 3820,
      "municipios": 3821,
      "Secretario": 3822,
      "Caribe": 3823,
      "EBLO": 3824,
      "Mundo": 3825,
      "PUEBLO": 3826,
      "Raúl": 3827,
      "aparato": 3828,
      "cemento": 3829,
      "corazón": 3830,
      "gobern": 3831,
      "ítulo": 3832,
      "dimensión": 3833,
      "propaganda": 3834,
      "humilde": 3835,
      "facilidades": 3836,
      "contemporáneos": 3837,
      "12": 3838,
      "Au": 3839,
      "Avan": 3840,
      "Bras": 3841,
      "Base": 3842,
      "Cre": 3843,
      "Centr": 3844,
      "Cami": 3845,
      "Canal": 3846,
      "Dom": 3847,
      "Dónde": 3848,
      "EL": 3849,
      "Econ": 3850,
      "Ful": 3851,
      "Fru": 3852,
      "Han": 3853,
      "Jr": 3854,
      "Jos": 3855,
      "Lu": 3856,
      "Les": 3857,
      "Mob": 3858,
      "Nue": 3859,
      "Nor": 3860,
      "Nicar": 3861,
      "Par": 3862,
      "Pla": 3863,
      "Puer": 3864,
      "Rico": 3865,
      "Son": 3866,
      "apen": 3867,
      "afr": 3868,
      "adentro": 3869,
      "bon": 3870,
      "bor": 3871,
      "bec": 3872,
      "braz": 3873,
      "cé": 3874,
      "caba": 3875,
      "cóm": 3876,
      "cele": 3877,
      "dían": 3878,
      "eg": 3879,
      "ejo": 3880,
      "fam": 3881,
      "fro": 3882,
      "gica": 3883,
      "gencio": 3884,
      "hé": 3885,
      "hid": 3886,
      "jun": 3887,
      "jir": 3888,
      "limpi": 3889,
      "mue": 3890,
      "mba": 3891,
      "males": 3892,
      "mico": 3893,
      "mimos": 3894,
      "num": 3895,
      "opres": 3896,
      "ología": 3897,
      "rando": 3898,
      "rán": 3899,
      "ramente": 3900,
      "sando": 3901,
      "senci": 3902,
      "tn": 3903,
      "tér": 3904,
      "ur": 3905,
      "utu": 3906,
      "ura": 3907,
      "vadores": 3908,
      "viera": 3909,
      "yamos": 3910,
      "úa": 3911,
      "–,": 3912,
      "—¡": 3913,
      "demuestr": 3914,
      "esen": 3915,
      "esgr": 3916,
      "escondi": 3917,
      "esfer": 3918,
      "espacio": 3919,
      "ener": 3920,
      "enero": 3921,
      "arri": 3922,
      "aridad": 3923,
      "arquía": 3924,
      "ere": 3925,
      "erci": 3926,
      "quedado": 3927,
      "querido": 3928,
      "queriendo": 3929,
      "onado": 3930,
      "ciente": 3931,
      "citar": 3932,
      "anas": 3933,
      "antas": 3934,
      "analiz": 3935,
      "alem": 3936,
      "altamente": 3937,
      "red": 3938,
      "rev": 3939,
      "reden": 3940,
      "reprim": 3941,
      "retir": 3942,
      "remedio": 3943,
      "tig": 3944,
      "tira": 3945,
      "tiles": 3946,
      "tibles": 3947,
      "ingo": 3948,
      "intro": 3949,
      "incum": 3950,
      "incultura": 3951,
      "insis": 3952,
      "inhumana": 3953,
      "confin": 3954,
      "confu": 3955,
      "conseguir": 3956,
      "conjunto": 3957,
      "contamos": 3958,
      "convic": 3959,
      "temas": 3960,
      "teoría": 3961,
      "doc": 3962,
      "amá": 3963,
      "seamos": 3964,
      "secun": 3965,
      "toma": 3966,
      "toman": 3967,
      "óne": 3968,
      "nobles": 3969,
      "dia": 3970,
      "dic": 3971,
      "diga": 3972,
      "dible": 3973,
      "diplo": 3974,
      "dije": 3975,
      "cuar": 3976,
      "cular": 3977,
      "cuyo": 3978,
      "cuantos": 3979,
      "emu": 3980,
      "emer": 3981,
      "eman": 3982,
      "oli": 3983,
      "abus": 3984,
      "estó": 3985,
      "porvenir": 3986,
      "siente": 3987,
      "siera": 3988,
      "obtener": 3989,
      "partir": 3990,
      "quid": 3991,
      "quir": 3992,
      "haga": 3993,
      "icó": 3994,
      "iste": 3995,
      "patos": 3996,
      "delito": 3997,
      "desaloj": 3998,
      "cionado": 3999,
      "puedo": 4000,
      "leales": 4001,
      "lejos": 4002,
      "supedi": 4003,
      "compar": 4004,
      "impuesto": 4005,
      "impun": 4006,
      "tenece": 4007,
      "olum": 4008,
      "tern": 4009,
      "tería": 4010,
      "vili": 4011,
      "viven": 4012,
      "vivía": 4013,
      "viviendo": 4014,
      "persigue": 4015,
      "pertenece": 4016,
      "raí": 4017,
      "caer": 4018,
      "pocas": 4019,
      "rito": 4020,
      "mapa": 4021,
      "misión": 4022,
      "millas": 4023,
      "proponer": 4024,
      "bibli": 4025,
      "exista": 4026,
      "modo": 4027,
      "movili": 4028,
      "acter": 4029,
      "actú": 4030,
      "mul": 4031,
      "mumba": 4032,
      "meta": 4033,
      "previ": 4034,
      "tratando": 4035,
      "servir": 4036,
      "pie": 4037,
      "pied": 4038,
      "chov": 4039,
      "tanta": 4040,
      "tanques": 4041,
      "datos": 4042,
      "tardar": 4043,
      "distancia": 4044,
      "discurso": 4045,
      "disponemos": 4046,
      "disminu": 4047,
      "denunciar": 4048,
      "uschov": 4049,
      "crece": 4050,
      "creadores": 4051,
      "peñ": 4052,
      "trabajan": 4053,
      "costa": 4054,
      "cosech": 4055,
      "laración": 4056,
      "zapatos": 4057,
      "intervenir": 4058,
      "interrup": 4059,
      "coinci": 4060,
      "vengo": 4061,
      "venían": 4062,
      "decirle": 4063,
      "tivar": 4064,
      "lantes": 4065,
      "vea": 4066,
      "presenci": 4067,
      "poses": 4068,
      "curar": 4069,
      "cursos": 4070,
      "rojo": 4071,
      "ropas": 4072,
      "hacernos": 4073,
      "aliza": 4074,
      "medicinas": 4075,
      "caro": 4076,
      "carga": 4077,
      "caracter": 4078,
      "sabían": 4079,
      "sabido": 4080,
      "necesarias": 4081,
      "puñ": 4082,
      "publi": 4083,
      "tirando": 4084,
      "cultivar": 4085,
      "bancos": 4086,
      "estudios": 4087,
      "vacaciones": 4088,
      "ponen": 4089,
      "estimu": 4090,
      "granja": 4091,
      "funciones": 4092,
      "antemente": 4093,
      "lleva": 4094,
      "fruto": 4095,
      "producen": 4096,
      "menor": 4097,
      "mentira": 4098,
      "ejercer": 4099,
      "ejerci": 4100,
      "fuego": 4101,
      "posiblemente": 4102,
      "pasada": 4103,
      "pasión": 4104,
      "liberación": 4105,
      "centa": 4106,
      "finales": 4107,
      "fincas": 4108,
      "finalizar": 4109,
      "how": 4110,
      "Constitu": 4111,
      "condición": 4112,
      "dará": 4113,
      "lleno": 4114,
      "discutido": 4115,
      "sensi": 4116,
      "autores": 4117,
      "aumento": 4118,
      "importaciones": 4119,
      "importaba": 4120,
      "neg": 4121,
      "demostrar": 4122,
      "demostrado": 4123,
      "pelo": 4124,
      "fui": 4125,
      "fuente": 4126,
      "fuimos": 4127,
      "salgan": 4128,
      "salvar": 4129,
      "monopolio": 4130,
      "ideológ": 4131,
      "color": 4132,
      "constante": 4133,
      "preciso": 4134,
      "sín": 4135,
      "situada": 4136,
      "situaciones": 4137,
      "Naval": 4138,
      "siglos": 4139,
      "ferio": 4140,
      "playa": 4141,
      "mayores": 4142,
      "buenas": 4143,
      "cruel": 4144,
      "virtualmente": 4145,
      "métodos": 4146,
      "método": 4147,
      "comprensión": 4148,
      "nacionalidad": 4149,
      "militaristas": 4150,
      "público": 4151,
      "mercan": 4152,
      "insti": 4153,
      "existiera": 4154,
      "defenderlos": 4155,
      "reciben": 4156,
      "delegado": 4157,
      "pensamos": 4158,
      "pensamiento": 4159,
      "Compan": 4160,
      "Comand": 4161,
      "dejó": 4162,
      "dejan": 4163,
      "dejaron": 4164,
      "dependencia": 4165,
      "brin": 4166,
      "terminados": 4167,
      "expresión": 4168,
      "morían": 4169,
      "aspiramos": 4170,
      "cabal": 4171,
      "deseo": 4172,
      "deseos": 4173,
      "desean": 4174,
      "podrán": 4175,
      "enseñado": 4176,
      "divierte": 4177,
      "vicios": 4178,
      "trición": 4179,
      "representar": 4180,
      "Allí": 4181,
      "invas": 4182,
      "explotado": 4183,
      "explotados": 4184,
      "evidente": 4185,
      "legisla": 4186,
      "surgieron": 4187,
      "surgiendo": 4188,
      "responder": 4189,
      "discutirse": 4190,
      "consis": 4191,
      "escriben": 4192,
      "médica": 4193,
      "ocurrió": 4194,
      "empezamos": 4195,
      "deberán": 4196,
      "contrarrevolución": 4197,
      "constituir": 4198,
      "hacíamos": 4199,
      "última": 4200,
      "sentidos": 4201,
      "logra": 4202,
      "logró": 4203,
      "propósitos": 4204,
      "obrero": 4205,
      "batallas": 4206,
      "universitario": 4207,
      "justificación": 4208,
      "convertible": 4209,
      "conversaciones": 4210,
      "convertibles": 4211,
      "dirigen": 4212,
      "Ahí": 4213,
      "físi": 4214,
      "región": 4215,
      "muchacho": 4216,
      "Tendremos": 4217,
      "avance": 4218,
      "alcance": 4219,
      "obligados": 4220,
      "obligaciones": 4221,
      "grupos": 4222,
      "vienen": 4223,
      "afectar": 4224,
      "afectados": 4225,
      "criterios": 4226,
      "radical": 4227,
      "mecanismo": 4228,
      "atender": 4229,
      "comenzar": 4230,
      "bilidad": 4231,
      "mantenerse": 4232,
      "institución": 4233,
      "institutos": 4234,
      "heridos": 4235,
      "hermanos": 4236,
      "objeto": 4237,
      "objetivo": 4238,
      "privilegios": 4239,
      "bert": 4240,
      "fabr": 4241,
      "conduce": 4242,
      "amplia": 4243,
      "amplio": 4244,
      "combatir": 4245,
      "piense": 4246,
      "señoría": 4247,
      "consideramos": 4248,
      "vuelta": 4249,
      "vuelva": 4250,
      "armados": 4251,
      "impugn": 4252,
      "desempeñ": 4253,
      "1981": 4254,
      "Podr": 4255,
      "debió": 4256,
      "violando": 4257,
      "procedi": 4258,
      "procedencia": 4259,
      "funcionando": 4260,
      "poderosas": 4261,
      "representados": 4262,
      "víctima": 4263,
      "Nuestra": 4264,
      "aplas": 4265,
      "esencialmente": 4266,
      "ancianos": 4267,
      "sirven": 4268,
      "sirva": 4269,
      "teriores": 4270,
      "exigir": 4271,
      "exigencia": 4272,
      "sinceridad": 4273,
      "seguramente": 4274,
      "relacionado": 4275,
      "vuela": 4276,
      "vuelo": 4277,
      "enfermos": 4278,
      "adquiriendo": 4279,
      "arruinar": 4280,
      "arruinan": 4281,
      "preguntarse": 4282,
      "extraordinario": 4283,
      "azucareros": 4284,
      "efecto": 4285,
      "efectivamente": 4286,
      "victorios": 4287,
      "guajir": 4288,
      "llevando": 4289,
      "hoteles": 4290,
      "negoci": 4291,
      "contribuir": 4292,
      "llamada": 4293,
      "tranquilidad": 4294,
      "tecnológ": 4295,
      "aparecer": 4296,
      "lógico": 4297,
      "entraña": 4298,
      "encontramos": 4299,
      "conceb": 4300,
      "administrativo": 4301,
      "administrativos": 4302,
      "Matos": 4303,
      "cálculos": 4304,
      "etcé": 4305,
      "confiar": 4306,
      "confianza": 4307,
      "amenazar": 4308,
      "diferentes": 4309,
      "superior": 4310,
      "provincias": 4311,
      "conciliar": 4312,
      "industrializados": 4313,
      "inteligencia": 4314,
      "independientemente": 4315,
      "Muy": 4316,
      "honestidad": 4317,
      "lenin": 4318,
      "madres": 4319,
      "nutrición": 4320,
      "sembrar": 4321,
      "siguen": 4322,
      "extensión": 4323,
      "resuelven": 4324,
      "preservar": 4325,
      "ignoran": 4326,
      "límites": 4327,
      "solidaridad": 4328,
      "explicado": 4329,
      "apoyar": 4330,
      "ofrecen": 4331,
      "Sería": 4332,
      "golpes": 4333,
      "invertir": 4334,
      "consul": 4335,
      "consumimos": 4336,
      "conclusiones": 4337,
      "abordar": 4338,
      "compromiso": 4339,
      "excepción": 4340,
      "excepciones": 4341,
      "modernos": 4342,
      "soviéticos": 4343,
      "garantizar": 4344,
      "llenar": 4345,
      "desempleados": 4346,
      "analfabetismo": 4347,
      "inauguración": 4348,
      "Marx": 4349,
      "edores": 4350,
      "fondo": 4351,
      "stituto": 4352,
      "cuidados": 4353,
      "similar": 4354,
      "similares": 4355,
      "riesgos": 4356,
      "miembro": 4357,
      "miembros": 4358,
      "soñado": 4359,
      "habitantes": 4360,
      "construcciones": 4361,
      "planificar": 4362,
      "Primer": 4363,
      "Primero": 4364,
      "Perú": 4365,
      "carrera": 4366,
      "valiente": 4367,
      "óptimo": 4368,
      "tradicional": 4369,
      "reaccionarios": 4370,
      "repito": 4371,
      "segundo": 4372,
      "cuyos": 4373,
      "adoptar": 4374,
      "exportaciones": 4375,
      "ciruj": 4376,
      "frutos": 4377,
      "guerrer": 4378,
      "pelear": 4379,
      "influencia": 4380,
      "enfermedades": 4381,
      "egoísta": 4382,
      "Dirección": 4383,
      "Declaración": 4384,
      "Harlem": 4385,
      "Tienen": 4386,
      "sueldo": 4387,
      "demanda": 4388,
      "desertores": 4389,
      "despoj": 4390,
      "descanso": 4391,
      "periodistas": 4392,
      "programas": 4393,
      "metralla": 4394,
      "discriminación": 4395,
      "venideras": 4396,
      "contradicción": 4397,
      "conspiran": 4398,
      "significará": 4399,
      "sembrando": 4400,
      "arquitectura": 4401,
      "Canadá": 4402,
      "Fuera": 4403,
      "Hubert": 4404,
      "Isla": 4405,
      "bomba": 4406,
      "hemisferio": 4407,
      "civil": 4408,
      "reparto": 4409,
      "regresar": 4410,
      "elog": 4411,
      "inmediatamente": 4412,
      "ametral": 4413,
      "emigrados": 4414,
      "predican": 4415,
      "traidor": 4416,
      "mantenimiento": 4417,
      "guardia": 4418,
      "policía": 4419,
      "economistas": 4420,
      "maravillas": 4421,
      "negros": 4422,
      "órgano": 4423,
      "ocurriría": 4424,
      "iniciativas": 4425,
      "optimistas": 4426,
      "orgullosa": 4427,
      "increíble": 4428,
      "intromisión": 4429,
      "Avance": 4430,
      "Brasil": 4431,
      "Central": 4432,
      "Camilo": 4433,
      "Domingo": 4434,
      "Fulgencio": 4435,
      "Fruit": 4436,
      "Jruschov": 4437,
      "Lumumba": 4438,
      "Mobutu": 4439,
      "Nicaragua": 4440,
      "Puerto": 4441,
      "cómplic": 4442,
      "numeros": 4443,
      "sencillo": 4444,
      "esgrim": 4445,
      "esferas": 4446,
      "alemán": 4447,
      "introdu": 4448,
      "incumbe": 4449,
      "insistido": 4450,
      "secund": 4451,
      "diplomá": 4452,
      "impunemente": 4453,
      "bibliote": 4454,
      "Company": 4455,
      "Comandante": 4456,
      "guajiros": 4457,
      "etcétera": 4458,
      "!\"": 4459,
      "!—": 4460,
      "\"¡": 4461,
      "\"...": 4462,
      "300": 4463,
      "40": 4464,
      "47": 4465,
      "80": 4466,
      "Ac": 4467,
      "Ame": 4468,
      "Acaso": 4469,
      "Además": 4470,
      "Atrás": 4471,
      "Brid": 4472,
      "Co": 4473,
      "Cam": 4474,
      "Chi": 4475,
      "Dere": 4476,
      "Eche": 4477,
      "Egi": 4478,
      "Fuer": 4479,
      "Flor": 4480,
      "He": 4481,
      "Hol": 4482,
      "Imag": 4483,
      "Irán": 4484,
      "Je": 4485,
      "Ken": 4486,
      "Lin": 4487,
      "Muerte": 4488,
      "Nada": 4489,
      "Pan": 4490,
      "Patr": 4491,
      "Sen": 4492,
      "Sab": 4493,
      "Sis": 4494,
      "TA": 4495,
      "Tal": 4496,
      "Tre": 4497,
      "Tel": 4498,
      "Vie": 4499,
      "Wal": 4500,
      "Yor": 4501,
      "ai": 4502,
      "aus": 4503,
      "aún": 4504,
      "apoder": 4505,
      "afuera": 4506,
      "academi": 4507,
      "ahogar": 4508,
      "bos": 4509,
      "bol": 4510,
      "bra": 4511,
      "brir": 4512,
      "cob": 4513,
      "cle": 4514,
      "cán": 4515,
      "cían": 4516,
      "cke": 4517,
      "colum": 4518,
      "dy": 4519,
      "ep": 4520,
      "ecu": 4521,
      "ega": 4522,
      "fé": 4523,
      "fen": 4524,
      "flo": 4525,
      "fía": 4526,
      "fican": 4527,
      "frecu": 4528,
      "gna": 4529,
      "gentes": 4530,
      "gadas": 4531,
      "glor": 4532,
      "hin": 4533,
      "ior": 4534,
      "idi": 4535,
      "ile": 4536,
      "iamente": 4537,
      "ientes": 4538,
      "ije": 4539,
      "iblemente": 4540,
      "mado": 4541,
      "mando": 4542,
      "ní": 4543,
      "nar": 4544,
      "ocul": 4545,
      "oído": 4546,
      "oídos": 4547,
      "pad": 4548,
      "pto": 4549,
      "pid": 4550,
      "pier": 4551,
      "ples": 4552,
      "rob": 4553,
      "rimos": 4554,
      "rieron": 4555,
      "sten": 4556,
      "spec": 4557,
      "tun": 4558,
      "tones": 4559,
      "tese": 4560,
      "table": 4561,
      "tmé": 4562,
      "tables": 4563,
      "título": 4564,
      "uli": 4565,
      "vados": 4566,
      "vino": 4567,
      "varias": 4568,
      "vío": 4569,
      "ye": 4570,
      "zen": 4571,
      "zaba": 4572,
      "zaban": 4573,
      "zana": 4574,
      "ático": 4575,
      "áreas": 4576,
      "éfon": 4577,
      "ñores": 4578,
      "”.": 4579,
      "deres": 4580,
      "dece": 4581,
      "detener": 4582,
      "devolver": 4583,
      "degener": 4584,
      "decretar": 4585,
      "oso": 4586,
      "osos": 4587,
      "espi": 4588,
      "esfor": 4589,
      "esistas": 4590,
      "ense": 4591,
      "envuel": 4592,
      "enzaron": 4593,
      "enamor": 4594,
      "arre": 4595,
      "arma": 4596,
      "armar": 4597,
      "arena": 4598,
      "arreg": 4599,
      "arries": 4600,
      "lap": 4601,
      "laciones": 4602,
      "lamos": 4603,
      "lamiento": 4604,
      "quej": 4605,
      "quedan": 4606,
      "quedaba": 4607,
      "onar": 4608,
      "onal": 4609,
      "ontar": 4610,
      "oneros": 4611,
      "ció": 4612,
      "ciera": 4613,
      "cientes": 4614,
      "ciega": 4615,
      "andar": 4616,
      "antería": 4617,
      "asi": 4618,
      "asen": 4619,
      "oras": 4620,
      "oriente": 4621,
      "aler": 4622,
      "alta": 4623,
      "alidad": 4624,
      "trunca": 4625,
      "trág": 4626,
      "triste": 4627,
      "unido": 4628,
      "adu": 4629,
      "adir": 4630,
      "adicar": 4631,
      "redi": 4632,
      "repor": 4633,
      "repas": 4634,
      "requiere": 4635,
      "revis": 4636,
      "repartido": 4637,
      "rebelde": 4638,
      "reconocer": 4639,
      "retribu": 4640,
      "reconcili": 4641,
      "tim": 4642,
      "tidades": 4643,
      "ticando": 4644,
      "ine": 4645,
      "inar": 4646,
      "inqui": 4647,
      "inces": 4648,
      "injusti": 4649,
      "informar": 4650,
      "incapaz": 4651,
      "conten": 4652,
      "contro": 4653,
      "confer": 4654,
      "tez": 4655,
      "temer": 4656,
      "ampl": 4657,
      "american": 4658,
      "amigos": 4659,
      "ambos": 4660,
      "sequías": 4661,
      "tome": 4662,
      "tocado": 4663,
      "dimos": 4664,
      "didos": 4665,
      "diciendo": 4666,
      "diez": 4667,
      "cuesta": 4668,
      "pros": 4669,
      "embre": 4670,
      "olvi": 4671,
      "abar": 4672,
      "abun": 4673,
      "ablemente": 4674,
      "estando": 4675,
      "sición": 4676,
      "siga": 4677,
      "sidio": 4678,
      "parecido": 4679,
      "quinta": 4680,
      "icado": 4681,
      "isc": 4682,
      "isos": 4683,
      "istal": 4684,
      "pade": 4685,
      "pagando": 4686,
      "descar": 4687,
      "desapar": 4688,
      "cionando": 4689,
      "lec": 4690,
      "suce": 4691,
      "suyo": 4692,
      "competir": 4693,
      "comand": 4694,
      "complic": 4695,
      "imes": 4696,
      "imno": 4697,
      "impon": 4698,
      "implique": 4699,
      "tendencia": 4700,
      "tero": 4701,
      "terri": 4702,
      "tuvi": 4703,
      "tuber": 4704,
      "tuvimos": 4705,
      "grúa": 4706,
      "gresistas": 4707,
      "aritmé": 4708,
      "vió": 4709,
      "viol": 4710,
      "viles": 4711,
      "vital": 4712,
      "viej": 4713,
      "vivieron": 4714,
      "vigi": 4715,
      "vivían": 4716,
      "viejo": 4717,
      "perpe": 4718,
      "pertin": 4719,
      "pertur": 4720,
      "perspec": 4721,
      "racion": 4722,
      "razar": 4723,
      "catom": 4724,
      "cacionales": 4725,
      "café": 4726,
      "potencia": 4727,
      "eco": 4728,
      "rita": 4729,
      "ritos": 4730,
      "mientos": 4731,
      "mirar": 4732,
      "misiones": 4733,
      "propor": 4734,
      "prohi": 4735,
      "progresistas": 4736,
      "liar": 4737,
      "ligencia": 4738,
      "lidiar": 4739,
      "bia": 4740,
      "extr": 4741,
      "exper": 4742,
      "expe": 4743,
      "expli": 4744,
      "excla": 4745,
      "extrem": 4746,
      "exterior": 4747,
      "verse": 4748,
      "verría": 4749,
      "acaba": 4750,
      "mulas": 4751,
      "murieron": 4752,
      "meida": 4753,
      "prece": 4754,
      "previsto": 4755,
      "traen": 4756,
      "tratan": 4757,
      "trayendo": 4758,
      "seremos": 4759,
      "servían": 4760,
      "seriamente": 4761,
      "baile": 4762,
      "pies": 4763,
      "pito": 4764,
      "duro": 4765,
      "resis": 4766,
      "resign": 4767,
      "resurg": 4768,
      "hablan": 4769,
      "ceremos": 4770,
      "cercen": 4771,
      "tarlo": 4772,
      "derram": 4773,
      "hayamos": 4774,
      "disponer": 4775,
      "disposición": 4776,
      "luz": 4777,
      "mantienen": 4778,
      "manzana": 4779,
      "éndo": 4780,
      "denes": 4781,
      "crea": 4782,
      "cree": 4783,
      "creían": 4784,
      "creíamos": 4785,
      "crearon": 4786,
      "petu": 4787,
      "arras": 4788,
      "trabajaron": 4789,
      "trabajador": 4790,
      "iras": 4791,
      "irse": 4792,
      "irnos": 4793,
      "irán": 4794,
      "sinnúmero": 4795,
      "costos": 4796,
      "intermin": 4797,
      "intervenida": 4798,
      "intercambiando": 4799,
      "interior": 4800,
      "colaboración": 4801,
      "venía": 4802,
      "guen": 4803,
      "ambicios": 4804,
      "casu": 4805,
      "casti": 4806,
      "tesis": 4807,
      "toso": 4808,
      "fique": 4809,
      "udita": 4810,
      "lante": 4811,
      "vejam": 4812,
      "presentan": 4813,
      "talentos": 4814,
      "estaf": 4815,
      "estación": 4816,
      "forj": 4817,
      "formal": 4818,
      "fortun": 4819,
      "garon": 4820,
      "garan": 4821,
      "quitán": 4822,
      "desarrollan": 4823,
      "desarrollen": 4824,
      "currido": 4825,
      "rocke": 4826,
      "entran": 4827,
      "hacerla": 4828,
      "alivio": 4829,
      "meditar": 4830,
      "gana": 4831,
      "gantes": 4832,
      "fueran": 4833,
      "cara": 4834,
      "sabremos": 4835,
      "sobrecumplimos": 4836,
      "necesaria": 4837,
      "primaria": 4838,
      "pul": 4839,
      "tirán": 4840,
      "camas": 4841,
      "caminos": 4842,
      "mundial": 4843,
      "culto": 4844,
      "estudie": 4845,
      "estudien": 4846,
      "vaci": 4847,
      "vación": 4848,
      "vayamos": 4849,
      "hecatom": 4850,
      "agrad": 4851,
      "ocupar": 4852,
      "estimula": 4853,
      "plen": 4854,
      "unilater": 4855,
      "estaríamos": 4856,
      "únicos": 4857,
      "fundad": 4858,
      "funcionario": 4859,
      "mascar": 4860,
      "volado": 4861,
      "volando": 4862,
      "preocupe": 4863,
      "lleven": 4864,
      "llegan": 4865,
      "llevado": 4866,
      "lleguen": 4867,
      "marina": 4868,
      "interesan": 4869,
      "interesaba": 4870,
      "frentes": 4871,
      "frío": 4872,
      "produjo": 4873,
      "sostenido": 4874,
      "burg": 4875,
      "titudes": 4876,
      "ejecu": 4877,
      "posiciones": 4878,
      "Quier": 4879,
      "pasaba": 4880,
      "pasaron": 4881,
      "librando": 4882,
      "montones": 4883,
      "defendido": 4884,
      "defensor": 4885,
      "basta": 4886,
      "mismas": 4887,
      "misterios": 4888,
      "líne": 4889,
      "norma": 4890,
      "normas": 4891,
      "compañeras": 4892,
      "Contra": 4893,
      "genio": 4894,
      "genios": 4895,
      "canales": 4896,
      "cantidades": 4897,
      "lleros": 4898,
      "llueve": 4899,
      "sala": 4900,
      "discuti": 4901,
      "discute": 4902,
      "discutió": 4903,
      "automó": 4904,
      "recurso": 4905,
      "icano": 4906,
      "dondequiera": 4907,
      "nedy": 4908,
      "fuentes": 4909,
      "sale": 4910,
      "salen": 4911,
      "salarios": 4912,
      "tadores": 4913,
      "tadura": 4914,
      "segura": 4915,
      "seguimos": 4916,
      "turalmente": 4917,
      "fecha": 4918,
      "ideales": 4919,
      "ideología": 4920,
      "poderío": 4921,
      "entregar": 4922,
      "recuer": 4923,
      "coln": 4924,
      "coleg": 4925,
      "construyendo": 4926,
      "Naturalmente": 4927,
      "subdesarrollado": 4928,
      "subsidio": 4929,
      "izada": 4930,
      "izadas": 4931,
      "agarr": 4932,
      "agencias": 4933,
      "soldado": 4934,
      "dirán": 4935,
      "luchas": 4936,
      "lucharon": 4937,
      "crático": 4938,
      "órdenes": 4939,
      "colonización": 4940,
      "mérito": 4941,
      "espantos": 4942,
      "algodón": 4943,
      "conoce": 4944,
      "comprende": 4945,
      "comprenda": 4946,
      "propias": 4947,
      "propiamente": 4948,
      "valen": 4949,
      "valent": 4950,
      "mayorías": 4951,
      "públicas": 4952,
      "insta": 4953,
      "instantes": 4954,
      "inosos": 4955,
      "defendernos": 4956,
      "Señores": 4957,
      "sacar": 4958,
      "recién": 4959,
      "recientes": 4960,
      "Comit": 4961,
      "Comenzaron": 4962,
      "jugar": 4963,
      "dejamos": 4964,
      "bramos": 4965,
      "bruto": 4966,
      "hijo": 4967,
      "hicimos": 4968,
      "hiciera": 4969,
      "imperio": 4970,
      "terminar": 4971,
      "expresamente": 4972,
      "preguntaban": 4973,
      "agresores": 4974,
      "ayudando": 4975,
      "cumplió": 4976,
      "cumplido": 4977,
      "cumpliendo": 4978,
      "cumpliremos": 4979,
      "EXCLAMA": 4980,
      "hostig": 4981,
      "calcula": 4982,
      "prisi": 4983,
      "privar": 4984,
      "promesas": 4985,
      "promueve": 4986,
      "ruina": 4987,
      "enseñaban": 4988,
      "vicio": 4989,
      "libertades": 4990,
      "sacrificio": 4991,
      "Almeida": 4992,
      "infantería": 4993,
      "explotar": 4994,
      "habrán": 4995,
      "ponerse": 4996,
      "breve": 4997,
      "pudieron": 4998,
      "surgir": 4999,
      "discutirlo": 5000,
      "futuras": 5001,
      "pintar": 5002,
      "pintura": 5003,
      "distinto": 5004,
      "aprendido": 5005,
      "honr": 5006,
      "honesta": 5007,
      "pandi": 5008,
      "relativamente": 5009,
      "tieron": 5010,
      "contingente": 5011,
      "continental": 5012,
      "contingentes": 5013,
      "empeñ": 5014,
      "empezó": 5015,
      "constitucional": 5016,
      "vindi": 5017,
      "vinieron": 5018,
      "instructor": 5019,
      "hacían": 5020,
      "perfecto": 5021,
      "perfeccionar": 5022,
      "1960": 5023,
      "reno": 5024,
      "erradicar": 5025,
      "tendríamos": 5026,
      "sano": 5027,
      "sangr": 5028,
      "verdaderos": 5029,
      "índice": 5030,
      "ínense": 5031,
      "esperando": 5032,
      "esperanzas": 5033,
      "actuando": 5034,
      "resulta": 5035,
      "resultó": 5036,
      "bello": 5037,
      "estético": 5038,
      "permite": 5039,
      "producto": 5040,
      "producciones": 5041,
      "productivas": 5042,
      "Instituto": 5043,
      "acudir": 5044,
      "ezca": 5045,
      "cuadro": 5046,
      "empleen": 5047,
      "firme": 5048,
      "regis": 5049,
      "pagarlas": 5050,
      "superarse": 5051,
      "preocupaba": 5052,
      "preocupada": 5053,
      "avanzar": 5054,
      "avances": 5055,
      "iguales": 5056,
      "sesión": 5057,
      "cuándo": 5058,
      "cuánto": 5059,
      "podamos": 5060,
      "podremos": 5061,
      "especie": 5062,
      "afecta": 5063,
      "afectaciones": 5064,
      "crisis": 5065,
      "radamente": 5066,
      "radial": 5067,
      "decían": 5068,
      "tomaron": 5069,
      "!”),": 5070,
      "!”);": 5071,
      "ficados": 5072,
      "ficando": 5073,
      "ógico": 5074,
      "asoci": 5075,
      "asociación": 5076,
      "incursión": 5077,
      "absoluto": 5078,
      "destruido": 5079,
      "Quiénes": 5080,
      "olvidan": 5081,
      "olvidado": 5082,
      "olvidarnos": 5083,
      "hermos": 5084,
      "objetivamente": 5085,
      "culturales": 5086,
      "rentable": 5087,
      "condujeron": 5088,
      "pienso": 5089,
      "piensan": 5090,
      "satisfe": 5091,
      "responsables": 5092,
      "utilización": 5093,
      "Toda": 5094,
      "gigantes": 5095,
      "vuelvo": 5096,
      "enfras": 5097,
      "particular": 5098,
      "impuso": 5099,
      "disfrazar": 5100,
      "personalismo": 5101,
      "desembarco": 5102,
      "1980": 5103,
      "manifestar": 5104,
      "Poder": 5105,
      "aplic": 5106,
      "aplicación": 5107,
      "decisi": 5108,
      "debido": 5109,
      "debiéramos": 5110,
      "textos": 5111,
      "hablaba": 5112,
      "bombardear": 5113,
      "bombardean": 5114,
      "renuncie": 5115,
      "Arte": 5116,
      "Armadas": 5117,
      "aérea": 5118,
      "películas": 5119,
      "aptitudes": 5120,
      "concesión": 5121,
      "estuvimos": 5122,
      "estuviera": 5123,
      "visita": 5124,
      "visitar": 5125,
      "visitantes": 5126,
      "exigen": 5127,
      "sincera": 5128,
      "tremendas": 5129,
      "afirmación": 5130,
      "oficial": 5131,
      "tonio": 5132,
      "querer": 5133,
      "quería": 5134,
      "proponemos": 5135,
      "organizado": 5136,
      "organizados": 5137,
      "organizando": 5138,
      "organizadamente": 5139,
      "preguntarle": 5140,
      "extraordinaria": 5141,
      "extraordinariamente": 5142,
      "horr": 5143,
      "digno": 5144,
      "digna": 5145,
      "surgen": 5146,
      "grave": 5147,
      "gracias": 5148,
      "grafía": 5149,
      "arroz": 5150,
      "hubiésemos": 5151,
      "contribuido": 5152,
      "recibiendo": 5153,
      "corromper": 5154,
      "imaginar": 5155,
      "aparecía": 5156,
      "cratismo": 5157,
      "gusta": 5158,
      "limitar": 5159,
      "limitaciones": 5160,
      "lógicamente": 5161,
      "entrañ": 5162,
      "nobleza": 5163,
      "marchar": 5164,
      "particip": 5165,
      "aparentemente": 5166,
      "felici": 5167,
      "fórmulas": 5168,
      "diferencias": 5169,
      "respectivos": 5170,
      "generaliz": 5171,
      "sentirnos": 5172,
      "industrializado": 5173,
      "inteligente": 5174,
      "asesinado": 5175,
      "asesinados": 5176,
      "asesinaron": 5177,
      "Antonio": 5178,
      "Miami": 5179,
      "Mientras": 5180,
      "Muchos": 5181,
      "clima": 5182,
      "débil": 5183,
      "echar": 5184,
      "fracas": 5185,
      "madu": 5186,
      "anuencia": 5187,
      "aspecto": 5188,
      "siguiente": 5189,
      "viviendas": 5190,
      "magníficos": 5191,
      "magnífica": 5192,
      "proyectos": 5193,
      "proyectiles": 5194,
      "reserva": 5195,
      "basuras": 5196,
      "ignorante": 5197,
      "explicaba": 5198,
      "administradores": 5199,
      "administrara": 5200,
      "ofrece": 5201,
      "alojamiento": 5202,
      "Ministerio": 5203,
      "Pueblo": 5204,
      "Venceremos": 5205,
      "juez": 5206,
      "jueces": 5207,
      "salió": 5208,
      "democrático": 5209,
      "enriquecer": 5210,
      "animal": 5211,
      "invertido": 5212,
      "indefensión": 5213,
      "empiez": 5214,
      "absurdas": 5215,
      "pactos": 5216,
      "compromisos": 5217,
      "impresión": 5218,
      "impresion": 5219,
      "racionalmente": 5220,
      "moderna": 5221,
      "niega": 5222,
      "niegan": 5223,
      "presumir": 5224,
      "publica": 5225,
      "publicó": 5226,
      "analfabeto": 5227,
      "Aquella": 5228,
      "Ciudad": 5229,
      "Francia": 5230,
      "Franco": 5231,
      "Marina": 5232,
      "admiración": 5233,
      "invitamos": 5234,
      "informados": 5235,
      "convierta": 5236,
      "documentos": 5237,
      "cuidan": 5238,
      "constructivo": 5239,
      "transcurrido": 5240,
      "planific": 5241,
      "aprovechamos": 5242,
      "bloqueo": 5243,
      "aniqui": 5244,
      "eléctricas": 5245,
      "segunda": 5246,
      "cuyas": 5247,
      "puertas": 5248,
      "propusimos": 5249,
      "excelente": 5250,
      "excelentes": 5251,
      "acabado": 5252,
      "cirugía": 5253,
      "pedimos": 5254,
      "quitarle": 5255,
      "poseedores": 5256,
      "esclavo": 5257,
      "generosidad": 5258,
      "colonizados": 5259,
      "colonizadores": 5260,
      "continuar": 5261,
      "sistemático": 5262,
      "sistemáticamente": 5263,
      "atrasado": 5264,
      "atrasados": 5265,
      "amenazando": 5266,
      "egoístas": 5267,
      "inevitable": 5268,
      "inevitables": 5269,
      "occi": 5270,
      "variedad": 5271,
      "árbol": 5272,
      "debates": 5273,
      "alentados": 5274,
      "reconocido": 5275,
      "desenmascar": 5276,
      "pretender": 5277,
      "presentado": 5278,
      "vocero": 5279,
      "voceros": 5280,
      "burocracia": 5281,
      "burocratismo": 5282,
      "mercenario": 5283,
      "recibimos": 5284,
      "juicio": 5285,
      "juicios": 5286,
      "prioridad": 5287,
      "priorizadas": 5288,
      "infalible": 5289,
      "infalibles": 5290,
      "combatiente": 5291,
      "combatientes": 5292,
      "debilitarla": 5293,
      "refleja": 5294,
      "cuerpo": 5295,
      "círculo": 5296,
      "elaborando": 5297,
      "gestiones": 5298,
      "téntico": 5299,
      "escudo": 5300,
      "argelino": 5301,
      "anteriormente": 5302,
      "trusts": 5303,
      "reivindi": 5304,
      "recogi": 5305,
      "referencia": 5306,
      "incorpor": 5307,
      "convirtió": 5308,
      "amistoso": 5309,
      "obedece": 5310,
      "sufrieron": 5311,
      "compensa": 5312,
      "cañones": 5313,
      "proteger": 5314,
      "movimiento": 5315,
      "residencias": 5316,
      "resolviera": 5317,
      "ventajas": 5318,
      "burdel": 5319,
      "financiero": 5320,
      "ejemplos": 5321,
      "propietarios": 5322,
      "inocentes": 5323,
      "rural": 5324,
      "Algunos": 5325,
      "honestamente": 5326,
      "satisface": 5327,
      "agredirnos": 5328,
      "armamentista": 5329,
      "fascismo": 5330,
      "solidarizan": 5331,
      "trascendental": 5332,
      "indispensables": 5333,
      "gobernantes": 5334,
      "Auténtico": 5335,
      "Economía": 5336,
      "José": 5337,
      "Nueva": 5338,
      "apenas": 5339,
      "brazos": 5340,
      "celebrar": 5341,
      "frozen": 5342,
      "héroe": 5343,
      "hidro": 5344,
      "limpiarlo": 5345,
      "muere": 5346,
      "opresión": 5347,
      "tnam": 5348,
      "términ": 5349,
      "escondida": 5350,
      "energía": 5351,
      "redención": 5352,
      "reprimían": 5353,
      "retirada": 5354,
      "confusión": 5355,
      "convicción": 5356,
      "óneas": 5357,
      "dictadura": 5358,
      "emergencia": 5359,
      "oligar": 5360,
      "ternal": 5361,
      "raíz": 5362,
      "actúa": 5363,
      "previamente": 5364,
      "piedra": 5365,
      "cosechado": 5366,
      "caracterís": 5367,
      "publicidad": 5368,
      "ejercicio": 5369,
      "sensibilidad": 5370,
      "negligencia": 5371,
      "ideológica": 5372,
      "constantemente": 5373,
      "síntesis": 5374,
      "invasión": 5375,
      "aplastar": 5376,
      "negocian": 5377,
      "tecnológicos": 5378,
      "cirujano": 5379,
      "guerreristas": 5380,
      "cómplices": 5381,
      "secundaria": 5382,
      "diplomáticas": 5383,
      "biblioteca": 5384,
      "Ameije": 5385,
      "Bridge": 5386,
      "Chile": 5387,
      "Derecho": 5388,
      "Echeverría": 5389,
      "Egipto": 5390,
      "Fuerzas": 5391,
      "Florida": 5392,
      "Kennedy": 5393,
      "Lincoln": 5394,
      "Panamá": 5395,
      "Patria": 5396,
      "Sistema": 5397,
      "Treinta": 5398,
      "Teléfon": 5399,
      "Vietnam": 5400,
      "York": 5401,
      "aire": 5402,
      "academias": 5403,
      "columnas": 5404,
      "fenóm": 5405,
      "níquel": 5406,
      "espiritu": 5407,
      "enamorada": 5408,
      "arreba": 5409,
      "redimir": 5410,
      "inquie": 5411,
      "temerle": 5412,
      "comandantes": 5413,
      "tuviéramos": 5414,
      "tuberculos": 5415,
      "aritmética": 5416,
      "perturbó": 5417,
      "expediente": 5418,
      "expliqué": 5419,
      "exclamaciones": 5420,
      "vejaminosos": 5421,
      "fortunadamente": 5422,
      "rockets": 5423,
      "hecatombe": 5424,
      "burgues": 5425,
      "línea": 5426,
      "automóviles": 5427,
      "espantosa": 5428,
      "Comité": 5429,
      "hostigamiento": 5430,
      "particularmente": 5431,
      "Ameijeiras": 5432,
      "Teléfonos": 5433,
      "\"?": 5434,
      "120": 5435,
      "26": 5436,
      "28": 5437,
      "35": 5438,
      "59": 5439,
      "66": 5440,
      "68": 5441,
      "75": 5442,
      "95": 5443,
      "Ab": 5444,
      "Ad": 5445,
      "Acu": 5446,
      "Apo": 5447,
      "Aso": 5448,
      "Bay": 5449,
      "Bél": 5450,
      "BACION": 5451,
      "Bien": 5452,
      "CH": 5453,
      "CO": 5454,
      "CU": 5455,
      "Cer": 5456,
      "Cis": 5457,
      "Che": 5458,
      "Cien": 5459,
      "Desa": 5460,
      "ET": 5461,
      "Eis": 5462,
      "Efi": 5463,
      "Elec": 5464,
      "For": 5465,
      "Fun": 5466,
      "Fili": 5467,
      "Guer": 5468,
      "Ho": 5469,
      "Hici": 5470,
      "Hace": 5471,
      "HET": 5472,
      "IN": 5473,
      "IX": 5474,
      "Ira": 5475,
      "JC": 5476,
      "Juli": 5477,
      "LI": 5478,
      "Li": 5479,
      "LLI": 5480,
      "Me": 5481,
      "Mo": 5482,
      "Man": 5483,
      "Más": 5484,
      "Manu": 5485,
      "Medio": 5486,
      "Mani": 5487,
      "Ne": 5488,
      "Nin": 5489,
      "OV": 5490,
      "Oce": 5491,
      "Otro": 5492,
      "Pas": 5493,
      "Pien": 5494,
      "Pago": 5495,
      "Ru": 5496,
      "Res": 5497,
      "Rad": 5498,
      "Respe": 5499,
      "SE": 5500,
      "Sa": 5501,
      "Sue": 5502,
      "Sar": 5503,
      "Sim": 5504,
      "Sac": 5505,
      "Sig": 5506,
      "Santi": 5507,
      "Tom": 5508,
      "Tres": 5509,
      "Tir": 5510,
      "Teman": 5511,
      "Times": 5512,
      "UJC": 5513,
      "Vil": 5514,
      "Was": 5515,
      "XIX": 5516,
      "af": 5517,
      "av": 5518,
      "ato": 5519,
      "apor": 5520,
      "aca": 5521,
      "apre": 5522,
      "ave": 5523,
      "atenemos": 5524,
      "aparte": 5525,
      "aguer": 5526,
      "ajus": 5527,
      "aisla": 5528,
      "atrav": 5529,
      "atribu": 5530,
      "apresu": 5531,
      "aguerr": 5532,
      "aplique": 5533,
      "bier": 5534,
      "bados": 5535,
      "blan": 5536,
      "cto": 5537,
      "cón": 5538,
      "cesa": 5539,
      "cesos": 5540,
      "cías": 5541,
      "ctiva": 5542,
      "cín": 5543,
      "cobr": 5544,
      "cobar": 5545,
      "cadá": 5546,
      "cándonos": 5547,
      "duer": 5548,
      "damente": 5549,
      "dores": 5550,
      "daban": 5551,
      "dante": 5552,
      "duel": 5553,
      "ear": 5554,
      "equ": 5555,
      "eamente": 5556,
      "efica": 5557,
      "edón": 5558,
      "ecieron": 5559,
      "elaboración": 5560,
      "fl": 5561,
      "fom": 5562,
      "famos": 5563,
      "fimo": 5564,
      "fiera": 5565,
      "flor": 5566,
      "fantas": 5567,
      "fisc": 5568,
      "gal": 5569,
      "glo": 5570,
      "gén": 5571,
      "gia": 5572,
      "gido": 5573,
      "gaban": 5574,
      "gton": 5575,
      "gadamente": 5576,
      "giere": 5577,
      "glater": 5578,
      "gógico": 5579,
      "hol": 5580,
      "hig": 5581,
      "hice": 5582,
      "himno": 5583,
      "ita": 5584,
      "iento": 5585,
      "iva": 5586,
      "ible": 5587,
      "ill": 5588,
      "ienta": 5589,
      "iremos": 5590,
      "ileg": 5591,
      "jado": 5592,
      "jamos": 5593,
      "jera": 5594,
      "ly": 5595,
      "lón": 5596,
      "lán": 5597,
      "lencia": 5598,
      "mamos": 5599,
      "mados": 5600,
      "mex": 5601,
      "mpi": 5602,
      "muer": 5603,
      "mada": 5604,
      "mesa": 5605,
      "maban": 5606,
      "mesti": 5607,
      "mío": 5608,
      "mentar": 5609,
      "mbo": 5610,
      "mbia": 5611,
      "nic": 5612,
      "od": 5613,
      "ola": 5614,
      "oción": 5615,
      "oía": 5616,
      "ocho": 5617,
      "oponen": 5618,
      "ood": 5619,
      "pente": 5620,
      "pamos": 5621,
      "pados": 5622,
      "pales": 5623,
      "pese": 5624,
      "pidos": 5625,
      "pieron": 5626,
      "piso": 5627,
      "pág": 5628,
      "rnos": 5629,
      "raba": 5630,
      "risas": 5631,
      "rísimo": 5632,
      "rieran": 5633,
      "sá": 5634,
      "samos": 5635,
      "sañ": 5636,
      "sario": 5637,
      "saron": 5638,
      "sfera": 5639,
      "show": 5640,
      "tt": 5641,
      "tón": 5642,
      "ttan": 5643,
      "tían": 5644,
      "tarios": 5645,
      "tamiento": 5646,
      "ua": 5647,
      "ulos": 5648,
      "utica": 5649,
      "umir": 5650,
      "ves": 5651,
      "vuestr": 5652,
      "vidos": 5653,
      "vidas": 5654,
      "vinci": 5655,
      "wood": 5656,
      "xia": 5657,
      "ximos": 5658,
      "yente": 5659,
      "yéramos": 5660,
      "zos": 5661,
      "zca": 5662,
      "zada": 5663,
      "África": 5664,
      "ática": 5665,
      "ásemos": 5666,
      "émico": 5667,
      "éutica": 5668,
      "ímos": 5669,
      "ídan": 5670,
      "óli": 5671,
      "—:": 5672,
      "—;": 5673,
      "“...": 5674,
      "dez": 5675,
      "dema": 5676,
      "deprim": 5677,
      "deposi": 5678,
      "decor": 5679,
      "debajo": 5680,
      "detrás": 5681,
      "delante": 5682,
      "osad": 5683,
      "espar": 5684,
      "esca": 5685,
      "escas": 5686,
      "espos": 5687,
      "espero": 5688,
      "estro": 5689,
      "estran": 5690,
      "enda": 5691,
      "encas": 5692,
      "endar": 5693,
      "endas": 5694,
      "ensegu": 5695,
      "envici": 5696,
      "encla": 5697,
      "engrande": 5698,
      "enhow": 5699,
      "envío": 5700,
      "envalent": 5701,
      "aras": 5702,
      "arbi": 5703,
      "arman": 5704,
      "ería": 5705,
      "erales": 5706,
      "erudi": 5707,
      "erías": 5708,
      "lato": 5709,
      "lados": 5710,
      "lagos": 5711,
      "lament": 5712,
      "quere": 5713,
      "queden": 5714,
      "queja": 5715,
      "quejas": 5716,
      "quedaban": 5717,
      "onde": 5718,
      "onero": 5719,
      "onable": 5720,
      "onomía": 5721,
      "ongados": 5722,
      "ciar": 5723,
      "cili": 5724,
      "ciadamente": 5725,
      "cicl": 5726,
      "cifra": 5727,
      "ciembre": 5728,
      "anta": 5729,
      "ancia": 5730,
      "andan": 5731,
      "ancias": 5732,
      "anarquía": 5733,
      "anteriores": 5734,
      "anizada": 5735,
      "asa": 5736,
      "asig": 5737,
      "asimi": 5738,
      "asign": 5739,
      "orqu": 5740,
      "orig": 5741,
      "orbó": 5742,
      "alma": 5743,
      "altar": 5744,
      "altad": 5745,
      "alentar": 5746,
      "alfabe": 5747,
      "alarman": 5748,
      "tric": 5749,
      "trari": 5750,
      "trados": 5751,
      "trán": 5752,
      "trina": 5753,
      "uncia": 5754,
      "unir": 5755,
      "unidos": 5756,
      "unida": 5757,
      "adónde": 5758,
      "adquir": 5759,
      "adonde": 5760,
      "reales": 5761,
      "regu": 5762,
      "requi": 5763,
      "remun": 5764,
      "reversi": 5765,
      "refin": 5766,
      "retró": 5767,
      "remedios": 5768,
      "realizado": 5769,
      "reanu": 5770,
      "realización": 5771,
      "realiza": 5772,
      "repente": 5773,
      "tidi": 5774,
      "tición": 5775,
      "tili": 5776,
      "timo": 5777,
      "tida": 5778,
      "tificar": 5779,
      "tigi": 5780,
      "tillas": 5781,
      "elar": 5782,
      "eler": 5783,
      "elimin": 5784,
      "inó": 5785,
      "incu": 5786,
      "inven": 5787,
      "incuesti": 5788,
      "indefensa": 5789,
      "indio": 5790,
      "incapaces": 5791,
      "inconfun": 5792,
      "incl": 5793,
      "inhumano": 5794,
      "injusticia": 5795,
      "informe": 5796,
      "intim": 5797,
      "inamistoso": 5798,
      "cones": 5799,
      "condo": 5800,
      "conser": 5801,
      "contener": 5802,
      "confes": 5803,
      "contó": 5804,
      "contaban": 5805,
      "congol": 5806,
      "conforme": 5807,
      "teo": 5808,
      "dolos": 5809,
      "doble": 5810,
      "domesti": 5811,
      "ampar": 5812,
      "amento": 5813,
      "amentos": 5814,
      "sedi": 5815,
      "selas": 5816,
      "sepa": 5817,
      "sedu": 5818,
      "secre": 5819,
      "sectores": 5820,
      "secretar": 5821,
      "tomas": 5822,
      "tomen": 5823,
      "toler": 5824,
      "tocó": 5825,
      "nove": 5826,
      "noche": 5827,
      "noamerican": 5828,
      "disi": 5829,
      "diver": 5830,
      "diera": 5831,
      "digan": 5832,
      "dices": 5833,
      "diseñ": 5834,
      "diremos": 5835,
      "dign": 5836,
      "dichas": 5837,
      "difam": 5838,
      "diciembre": 5839,
      "cusas": 5840,
      "curios": 5841,
      "cuantas": 5842,
      "prol": 5843,
      "pris": 5844,
      "prac": 5845,
      "prese": 5846,
      "prestar": 5847,
      "prés": 5848,
      "loto": 5849,
      "lombia": 5850,
      "empren": 5851,
      "emoción": 5852,
      "olico": 5853,
      "abo": 5854,
      "abia": 5855,
      "abne": 5856,
      "abusos": 5857,
      "abuso": 5858,
      "abusar": 5859,
      "estorbó": 5860,
      "portado": 5861,
      "porcenta": 5862,
      "sito": 5863,
      "sitos": 5864,
      "sienten": 5865,
      "sientan": 5866,
      "simul": 5867,
      "obtenido": 5868,
      "obrar": 5869,
      "obtenga": 5870,
      "obtuvieron": 5871,
      "parasi": 5872,
      "quiso": 5873,
      "hago": 5874,
      "hatez": 5875,
      "hattan": 5876,
      "halagos": 5877,
      "idar": 5878,
      "idamente": 5879,
      "idable": 5880,
      "idóneas": 5881,
      "ices": 5882,
      "icen": 5883,
      "isa": 5884,
      "istad": 5885,
      "pach": 5886,
      "paciencia": 5887,
      "patente": 5888,
      "patentes": 5889,
      "pacientes": 5890,
      "paternal": 5891,
      "delincu": 5892,
      "desta": 5893,
      "desvi": 5894,
      "despre": 5895,
      "desfi": 5896,
      "descen": 5897,
      "desmor": 5898,
      "desfac": 5899,
      "desesper": 5900,
      "desactu": 5901,
      "desgra": 5902,
      "desvergüenza": 5903,
      "despacio": 5904,
      "deshonesto": 5905,
      "desbor": 5906,
      "desaparecer": 5907,
      "desconfianza": 5908,
      "desalentar": 5909,
      "despach": 5910,
      "ciona": 5911,
      "cionados": 5912,
      "cionista": 5913,
      "cionadas": 5914,
      "lee": 5915,
      "lealtad": 5916,
      "suma": 5917,
      "suya": 5918,
      "suprim": 5919,
      "sumar": 5920,
      "suponer": 5921,
      "suminis": 5922,
      "sutil": 5923,
      "sumir": 5924,
      "suger": 5925,
      "suave": 5926,
      "sugiere": 5927,
      "supieron": 5928,
      "compara": 5929,
      "compre": 5930,
      "impl": 5931,
      "implan": 5932,
      "imponer": 5933,
      "impotencia": 5934,
      "impetu": 5935,
      "chamos": 5936,
      "chino": 5937,
      "chorías": 5938,
      "teniendo": 5939,
      "tenientes": 5940,
      "parates": 5941,
      "terra": 5942,
      "terías": 5943,
      "ternacional": 5944,
      "terap": 5945,
      "teradamente": 5946,
      "terreno": 5947,
      "tum": 5948,
      "turas": 5949,
      "tubre": 5950,
      "grá": 5951,
      "gría": 5952,
      "grados": 5953,
      "gración": 5954,
      "grasa": 5955,
      "vive": 5956,
      "viga": 5957,
      "vivos": 5958,
      "villas": 5959,
      "vivimos": 5960,
      "perman": 5961,
      "perdon": 5962,
      "perdón": 5963,
      "perdieron": 5964,
      "perdían": 5965,
      "persiguen": 5966,
      "perritos": 5967,
      "radez": 5968,
      "ratificar": 5969,
      "caían": 5970,
      "cacional": 5971,
      "capitales": 5972,
      "ecen": 5973,
      "rig": 5974,
      "ril": 5975,
      "rio": 5976,
      "rientes": 5977,
      "mader": 5978,
      "mapas": 5979,
      "madeja": 5980,
      "mio": 5981,
      "miden": 5982,
      "miras": 5983,
      "mienda": 5984,
      "Estu": 5985,
      "Estas": 5986,
      "prot": 5987,
      "provo": 5988,
      "procidad": 5989,
      "procurar": 5990,
      "proposiciones": 5991,
      "procesos": 5992,
      "provinci": 5993,
      "liter": 5994,
      "entado": 5995,
      "bido": 5996,
      "exam": 5997,
      "expon": 5998,
      "externa": 5999,
      "exterminados": 6000,
      "excusas": 6001,
      "exprese": 6002,
      "motiv": 6003,
      "motiva": 6004,
      "veres": 6005,
      "verales": 6006,
      "versario": 6007,
      "soport": 6008,
      "actas": 6009,
      "aceler": 6010,
      "mea": 6011,
      "prefabr": 6012,
      "pretextos": 6013,
      "prejuicios": 6014,
      "premio": 6015,
      "Realmente": 6016,
      "Regi": 6017,
      "trae": 6018,
      "traía": 6019,
      "traza": 6020,
      "trajo": 6021,
      "trató": 6022,
      "trataba": 6023,
      "traído": 6024,
      "tratamiento": 6025,
      "seres": 6026,
      "serio": 6027,
      "serias": 6028,
      "balan": 6029,
      "pido": 6030,
      "pidi": 6031,
      "piezas": 6032,
      "piloto": 6033,
      "ánto": 6034,
      "ángu": 6035,
      "naz": 6036,
      "naval": 6037,
      "nacido": 6038,
      "nacidos": 6039,
      "tienda": 6040,
      "duramente": 6041,
      "niples": 6042,
      "dación": 6043,
      "resto": 6044,
      "resaltar": 6045,
      "restric": 6046,
      "torrique": 6047,
      "gola": 6048,
      "gogia": 6049,
      "hablá": 6050,
      "cería": 6051,
      "taran": 6052,
      "tarse": 6053,
      "taría": 6054,
      "tardos": 6055,
      "dero": 6056,
      "dería": 6057,
      "cirnos": 6058,
      "discre": 6059,
      "disfru": 6060,
      "disparates": 6061,
      "lujos": 6062,
      "mantenido": 6063,
      "Cuánto": 6064,
      "éndice": 6065,
      "éndose": 6066,
      "denci": 6067,
      "cionarias": 6068,
      "creó": 6069,
      "creamos": 6070,
      "crecen": 6071,
      "crecimi": 6072,
      "creciente": 6073,
      "arrendar": 6074,
      "trabajamos": 6075,
      "irresponsab": 6076,
      "sinfón": 6077,
      "laron": 6078,
      "laridad": 6079,
      "lardos": 6080,
      "largas": 6081,
      "quím": 6082,
      "Está": 6083,
      "Están": 6084,
      "Estábamos": 6085,
      "interno": 6086,
      "interven": 6087,
      "interro": 6088,
      "intercambio": 6089,
      "colabor": 6090,
      "cohonest": 6091,
      "colap": 6092,
      "vender": 6093,
      "venden": 6094,
      "venga": 6095,
      "vendía": 6096,
      "venide": 6097,
      "venimos": 6098,
      "vendíamos": 6099,
      "debo": 6100,
      "debíamos": 6101,
      "guay": 6102,
      "gulamiento": 6103,
      "casa": 6104,
      "tividad": 6105,
      "ceder": 6106,
      "filas": 6107,
      "figu": 6108,
      "fiesto": 6109,
      "landa": 6110,
      "lanzaron": 6111,
      "lanzó": 6112,
      "lanzando": 6113,
      "lanzan": 6114,
      "veci": 6115,
      "veían": 6116,
      "veje": 6117,
      "vege": 6118,
      "presencia": 6119,
      "presiones": 6120,
      "presentar": 6121,
      "presion": 6122,
      "presiva": 6123,
      "prestigi": 6124,
      "talidad": 6125,
      "añadir": 6126,
      "forman": 6127,
      "quito": 6128,
      "quitaba": 6129,
      "poso": 6130,
      "postura": 6131,
      "posteriores": 6132,
      "curas": 6133,
      "suspen": 6134,
      "sustitu": 6135,
      "rode": 6136,
      "rogar": 6137,
      "entro": 6138,
      "Portier": 6139,
      "hacerle": 6140,
      "escol": 6141,
      "alientan": 6142,
      "medite": 6143,
      "APRO": 6144,
      "ganó": 6145,
      "ganado": 6146,
      "ganancias": 6147,
      "carre": 6148,
      "carse": 6149,
      "carta": 6150,
      "cargo": 6151,
      "cartas": 6152,
      "carbu": 6153,
      "cargos": 6154,
      "carece": 6155,
      "carnic": 6156,
      "sabía": 6157,
      "sabíamos": 6158,
      "sabiendo": 6159,
      "sabrá": 6160,
      "sobrecumplir": 6161,
      "sobrecumplimiento": 6162,
      "sobreviven": 6163,
      "puramente": 6164,
      "tirar": 6165,
      "dosis": 6166,
      "culen": 6167,
      "cultores": 6168,
      "cultivo": 6169,
      "estándar": 6170,
      "zares": 6171,
      "zarse": 6172,
      "banas": 6173,
      "agrados": 6174,
      "agravi": 6175,
      "agrav": 6176,
      "agronomía": 6177,
      "ponés": 6178,
      "ocupa": 6179,
      "ocupó": 6180,
      "granadas": 6181,
      "granito": 6182,
      "pleno": 6183,
      "unión": 6184,
      "estaría": 6185,
      "minorías": 6186,
      "minerales": 6187,
      "únicamente": 6188,
      "funcionarios": 6189,
      ")...": 6190,
      "versiones": 6191,
      "vocar": 6192,
      "vocacionales": 6193,
      "llegue": 6194,
      "interesantes": 6195,
      "frase": 6196,
      "producida": 6197,
      "producimos": 6198,
      "produjeron": 6199,
      "menores": 6200,
      "mentir": 6201,
      "mencionando": 6202,
      "sospe": 6203,
      "vanguardia": 6204,
      "budos": 6205,
      "ceses": 6206,
      "cesaron": 6207,
      "titudin": 6208,
      "cualidades": 6209,
      "ejérci": 6210,
      "fuegos": 6211,
      "positivas": 6212,
      "positivo": 6213,
      "Quien": 6214,
      "pasó": 6215,
      "pasando": 6216,
      "libramos": 6217,
      "Enten": 6218,
      "Enmienda": 6219,
      "mone": 6220,
      "monstru": 6221,
      "defensas": 6222,
      "defendida": 6223,
      "bastardos": 6224,
      "lín": 6225,
      "líder": 6226,
      "norm": 6227,
      "compañer": 6228,
      "compañía": 6229,
      "Contin": 6230,
      "Conjun": 6231,
      "darse": 6232,
      "darles": 6233,
      "cansaron": 6234,
      "llena": 6235,
      "saque": 6236,
      "tropas": 6237,
      "discutan": 6238,
      "discutidos": 6239,
      "socialmente": 6240,
      "senador": 6241,
      "aument": 6242,
      "autén": 6243,
      "icana": 6244,
      "importar": 6245,
      "importación": 6246,
      "mejora": 6247,
      "corta": 6248,
      "corren": 6249,
      "corrientes": 6250,
      "negado": 6251,
      "negro": 6252,
      "tenerse": 6253,
      "milici": 6254,
      "barata": 6255,
      "barrios": 6256,
      "barrio": 6257,
      "barbudos": 6258,
      "pesim": 6259,
      "teamérica": 6260,
      "claras": 6261,
      "opoldo": 6262,
      "plantillas": 6263,
      "futura": 6264,
      "fuéramos": 6265,
      "fuésemos": 6266,
      "salón": 6267,
      "salga": 6268,
      "salimos": 6269,
      "salieron": 6270,
      "salvadores": 6271,
      "seguiremos": 6272,
      "turismo": 6273,
      "amigo": 6274,
      "recelar": 6275,
      "colmo": 6276,
      "gramática": 6277,
      "nuevamente": 6278,
      "patrió": 6279,
      "millon": 6280,
      "danza": 6281,
      "jefe": 6282,
      "situado": 6283,
      "situamos": 6284,
      "situando": 6285,
      "situarme": 6286,
      "situarnos": 6287,
      "comunidad": 6288,
      "subdesarrollo": 6289,
      "subsan": 6290,
      "ferencia": 6291,
      "verdades": 6292,
      "niña": 6293,
      "agarran": 6294,
      "rara": 6295,
      "rarían": 6296,
      "solici": 6297,
      "soltando": 6298,
      "udadas": 6299,
      "incluyendo": 6300,
      "luchamos": 6301,
      "luchemos": 6302,
      "cristal": 6303,
      "justos": 6304,
      "conocen": 6305,
      "conocía": 6306,
      "concibo": 6307,
      "propiedad": 6308,
      "propiciar": 6309,
      "nacionalismo": 6310,
      "valía": 6311,
      "valores": 6312,
      "enemistad": 6313,
      "leyó": 6314,
      "facili": 6315,
      "ciudadanía": 6316,
      "mejorar": 6317,
      "mayorit": 6318,
      "ilimi": 6319,
      "meras": 6320,
      "meridi": 6321,
      "merolico": 6322,
      "insóli": 6323,
      "campesinas": 6324,
      "ESTA": 6325,
      "ESCU": 6326,
      "central": 6327,
      "sacado": 6328,
      "reciente": 6329,
      "recibamos": 6330,
      "recibir": 6331,
      "recientemente": 6332,
      "reciprocidad": 6333,
      "pensado": 6334,
      "Debe": 6335,
      "Debo": 6336,
      "personalmente": 6337,
      "terminó": 6338,
      "preguntan": 6339,
      "preguntó": 6340,
      "hostil": 6341,
      "moría": 6342,
      "mortalidad": 6343,
      "espíritus": 6344,
      "Procla": 6345,
      "falsa": 6346,
      "falsas": 6347,
      "desee": 6348,
      "deseamos": 6349,
      "desearemos": 6350,
      "cambiar": 6351,
      "cambiaría": 6352,
      "enseña": 6353,
      "divisa": 6354,
      "antigu": 6355,
      "antiaéreas": 6356,
      "antiaéreo": 6357,
      "imientos": 6358,
      "liberar": 6359,
      "autorización": 6360,
      "Algo": 6361,
      "Almirante": 6362,
      "infam": 6363,
      "inventado": 6364,
      "explotan": 6365,
      "explotad": 6366,
      "ponernos": 6367,
      "industriales": 6368,
      "evitando": 6369,
      "educar": 6370,
      "educacional": 6371,
      "pobrísimo": 6372,
      "pudimos": 6373,
      "pudiese": 6374,
      "incidente": 6375,
      "incidentes": 6376,
      "...,": 6377,
      "pinas": 6378,
      "pintores": 6379,
      "soluciones": 6380,
      "considere": 6381,
      "nacionalizar": 6382,
      "nacionalización": 6383,
      "distingu": 6384,
      "escrita": 6385,
      "escriba": 6386,
      "honradamente": 6387,
      "honradez": 6388,
      "operar": 6389,
      "operación": 6390,
      "plantee": 6391,
      "plantear": 6392,
      "plantearon": 6393,
      "familiari": 6394,
      "familiares": 6395,
      "relajo": 6396,
      "independientes": 6397,
      "deberes": 6398,
      "contrarrevolucionarias": 6399,
      "constituido": 6400,
      "instrucción": 6401,
      "perfecta": 6402,
      "perfectas": 6403,
      "1970": 6404,
      "1990": 6405,
      "1959": 6406,
      "máxima": 6407,
      "malo": 6408,
      "tendrían": 6409,
      "logro": 6410,
      "logramos": 6411,
      "preparada": 6412,
      "índole": 6413,
      "ínfimo": 6414,
      "índices": 6415,
      "esperarse": 6416,
      "establecieron": 6417,
      "establecía": 6418,
      "actual": 6419,
      "actualmente": 6420,
      "actualizado": 6421,
      "batallón": 6422,
      "pequeña": 6423,
      "llevarlo": 6424,
      "iénicas": 6425,
      "iéndonos": 6426,
      "determinada": 6427,
      "cintil": 6428,
      "cindible": 6429,
      "unció": 6430,
      "permiten": 6431,
      "permitido": 6432,
      "permitió": 6433,
      "DEL": 6434,
      "Interior": 6435,
      "Inglater": 6436,
      "Internacional": 6437,
      "Inversiones": 6438,
      "acumu": 6439,
      "acusaciones": 6440,
      "acusando": 6441,
      "conversando": 6442,
      "cuadr": 6443,
      "emplear": 6444,
      "parecer": 6445,
      "Universi": 6446,
      "íficamente": 6447,
      "dedican": 6448,
      "dedicado": 6449,
      "dedicó": 6450,
      "reglas": 6451,
      "regiblemente": 6452,
      "supers": 6453,
      "superen": 6454,
      "superamos": 6455,
      "superfici": 6456,
      "extrañ": 6457,
      "extraño": 6458,
      "extracontinental": 6459,
      "seriedad": 6460,
      "formando": 6461,
      "formaba": 6462,
      "formidable": 6463,
      "llegará": 6464,
      "llegaron": 6465,
      "criminal": 6466,
      "avanzada": 6467,
      "iguali": 6468,
      "igualmente": 6469,
      "antojo": 6470,
      "convenía": 6471,
      "convenga": 6472,
      "convenios": 6473,
      "convencido": 6474,
      "conveniente": 6475,
      "convencidos": 6476,
      "obliga": 6477,
      "obligaron": 6478,
      "resolverlos": 6479,
      "resolverse": 6480,
      "saberlo": 6481,
      "históricamente": 6482,
      "especies": 6483,
      "especialmente": 6484,
      "especializado": 6485,
      "apoyan": 6486,
      "afectan": 6487,
      "afectado": 6488,
      "criticando": 6489,
      "radiales": 6490,
      "xionado": 6491,
      "tomarán": 6492,
      "profesión": 6493,
      "!”).": 6494,
      "ficable": 6495,
      "opiniones": 6496,
      "utilidad": 6497,
      "incurriendo": 6498,
      "destruida": 6499,
      "destruyendo": 6500,
      "cometa": 6501,
      "cometiendo": 6502,
      "instituciones": 6503,
      "olvidarse": 6504,
      "Solo": 6505,
      "lárnos": 6506,
      "simple": 6507,
      "lucharemos": 6508,
      "comprenderlo": 6509,
      "dirigidos": 6510,
      "Paraguay": 6511,
      "fabeta": 6512,
      "fabulos": 6513,
      "gobierna": 6514,
      "momentos": 6515,
      "rentas": 6516,
      "reduciendo": 6517,
      "reducida": 6518,
      "reducidas": 6519,
      "conducir": 6520,
      "conducido": 6521,
      "combate": 6522,
      "combatiendo": 6523,
      "combatamos": 6524,
      "vivirán": 6525,
      "piensen": 6526,
      "tirano": 6527,
      "tiranías": 6528,
      "satisfactor": 6529,
      "considerando": 6530,
      "utilizando": 6531,
      "utilizamos": 6532,
      "utilizados": 6533,
      "armado": 6534,
      "armada": 6535,
      "armadas": 6536,
      "armamentos": 6537,
      "impul": 6538,
      "impuesta": 6539,
      "imputaciones": 6540,
      "impusiera": 6541,
      "pedirán": 6542,
      "1987": 6543,
      "manifestado": 6544,
      "manifestó": 6545,
      "Podemos": 6546,
      "decimos": 6547,
      "decidido": 6548,
      "decisiones": 6549,
      "enteras": 6550,
      "enteramente": 6551,
      "analfabeta": 6552,
      "reunieron": 6553,
      "tempr": 6554,
      "temper": 6555,
      "temores": 6556,
      "papeles": 6557,
      "completa": 6558,
      "complejas": 6559,
      "maestro": 6560,
      "procedente": 6561,
      "hablamos": 6562,
      "hablaban": 6563,
      "masiva": 6564,
      "masivos": 6565,
      "representante": 6566,
      "bombardeo": 6567,
      "bombardeando": 6568,
      "renunciado": 6569,
      "prácticos": 6570,
      "buscarla": 6571,
      "Artes": 6572,
      "Artistas": 6573,
      "Armada": 6574,
      "Arabia": 6575,
      "declaramos": 6576,
      "declaraba": 6577,
      "encontrará": 6578,
      "Estoy": 6579,
      "correr": 6580,
      "106": 6581,
      "apto": 6582,
      "apéndice": 6583,
      "japonés": 6584,
      "sobrante": 6585,
      "tándose": 6586,
      "táneamente": 6587,
      "anciana": 6588,
      "anciano": 6589,
      "ancianas": 6590,
      "domingo": 6591,
      "dominaban": 6592,
      "domingos": 6593,
      "exige": 6594,
      "traicion": 6595,
      "traiga": 6596,
      "respetables": 6597,
      "respetarlo": 6598,
      "fortalezas": 6599,
      "formarlo": 6600,
      "tremendos": 6601,
      "igualdad": 6602,
      "disfrazando": 6603,
      "atmó": 6604,
      "afirmaciones": 6605,
      "afirmando": 6606,
      "fechorías": 6607,
      "fastidi": 6608,
      "tonterías": 6609,
      "enfermeras": 6610,
      "queríamos": 6611,
      "adquirido": 6612,
      "adquisición": 6613,
      "próximos": 6614,
      "pronunciar": 6615,
      "proponen": 6616,
      "peculiares": 6617,
      "peculiar": 6618,
      "arruinado": 6619,
      "arruinaban": 6620,
      "favorable": 6621,
      "favorecido": 6622,
      "extraordinarios": 6623,
      "extraordinarias": 6624,
      "efectu": 6625,
      "efectos": 6626,
      "volvernos": 6627,
      "volverían": 6628,
      "zoológ": 6629,
      "alimentan": 6630,
      "intento": 6631,
      "intensi": 6632,
      "intensa": 6633,
      "intensas": 6634,
      "dignos": 6635,
      "partamentos": 6636,
      "internacionalismo": 6637,
      "internacionalistas": 6638,
      "necesitaba": 6639,
      "grandemente": 6640,
      "llevaron": 6641,
      "franceses": 6642,
      "negocio": 6643,
      "negarlo": 6644,
      "negativa": 6645,
      "hubiesen": 6646,
      "contribuyan": 6647,
      "contribuyendo": 6648,
      "llamó": 6649,
      "llamado": 6650,
      "llamados": 6651,
      "llamarse": 6652,
      "conocimiento": 6653,
      "existente": 6654,
      "recibió": 6655,
      "representativo": 6656,
      "representativos": 6657,
      "beneficios": 6658,
      "corrompidos": 6659,
      "imaginario": 6660,
      "imaginación": 6661,
      "aparece": 6662,
      "aparecen": 6663,
      "gusto": 6664,
      "limitado": 6665,
      "limitación": 6666,
      "rama": 6667,
      "enviar": 6668,
      "envidi": 6669,
      "enviaba": 6670,
      "entrañas": 6671,
      "científica": 6672,
      "científicas": 6673,
      "albergan": 6674,
      "albergue": 6675,
      "condenado": 6676,
      "concedido": 6677,
      "concebir": 6678,
      "confundan": 6679,
      "proclama": 6680,
      "proclamado": 6681,
      "agricultores": 6682,
      "marchi": 6683,
      "marchen": 6684,
      "montaña": 6685,
      "administración": 6686,
      "aceptaban": 6687,
      "aparcería": 6688,
      "celencia": 6689,
      "celarias": 6690,
      "etario": 6691,
      "felices": 6692,
      "gastar": 6693,
      "oyen": 6694,
      "latinoamerican": 6695,
      "repetirse": 6696,
      "ingres": 6697,
      "ingresar": 6698,
      "totalmente": 6699,
      "dividir": 6700,
      "dividido": 6701,
      "diferente": 6702,
      "diferida": 6703,
      "abastecimientos": 6704,
      "despiad": 6705,
      "tercero": 6706,
      "cañaverales": 6707,
      "pedago": 6708,
      "pedagógico": 6709,
      "generales": 6710,
      "sentiría": 6711,
      "subjetivos": 6712,
      "conciliado": 6713,
      "industrializar": 6714,
      "industrialización": 6715,
      "evitarlo": 6716,
      "inteligencias": 6717,
      "equivocados": 6718,
      "Antes": 6719,
      "Angola": 6720,
      "Mill": 6721,
      "Militar": 6722,
      "Mucho": 6723,
      "Monroe": 6724,
      "climas": 6725,
      "calibre": 6726,
      "calificado": 6727,
      "calificados": 6728,
      "focar": 6729,
      "nutre": 6730,
      "nucle": 6731,
      "sectorial": 6732,
      "causas": 6733,
      "magnífico": 6734,
      "magníficas": 6735,
      "extender": 6736,
      "traernos": 6737,
      "traería": 6738,
      "resueltos": 6739,
      "preserv": 6740,
      "entrenemos": 6741,
      "entrenamiento": 6742,
      "abandona": 6743,
      "abandonar": 6744,
      "abandonan": 6745,
      "basurita": 6746,
      "ignorar": 6747,
      "adecuados": 6748,
      "adecuadas": 6749,
      "colonialista": 6750,
      "dejaran": 6751,
      "enseñarle": 6752,
      "apoyaba": 6753,
      "administrador": 6754,
      "privilegiado": 6755,
      "ofrecer": 6756,
      "agropecuarias": 6757,
      "Ministros": 6758,
      "Sur": 6759,
      "Surg": 6760,
      "Seremos": 6761,
      "dueño": 6762,
      "geo": 6763,
      "golf": 6764,
      "juega": 6765,
      "salido": 6766,
      "saliendo": 6767,
      "entienda": 6768,
      "argumento": 6769,
      "conclusión": 6770,
      "cuotas": 6771,
      "abordado": 6772,
      "pacífico": 6773,
      "pacíficos": 6774,
      "imprescindible": 6775,
      "vivió": 6776,
      "nieb": 6777,
      "presupuestos": 6778,
      "garantizando": 6779,
      "garantizados": 6780,
      "politi": 6781,
      "publicar": 6782,
      "plicado": 6783,
      "pasará": 6784,
      "llenando": 6785,
      "señaló": 6786,
      "señalaron": 6787,
      "Compañeras": 6788,
      "laboratorios": 6789,
      "laboratorio": 6790,
      "analfabetos": 6791,
      "asegurado": 6792,
      "comerciales": 6793,
      "latifundio": 6794,
      "españoles": 6795,
      "inaugurar": 6796,
      "aprobar": 6797,
      "aprobado": 6798,
      "cismo": 6799,
      "asfixia": 6800,
      "recordaba": 6801,
      "invite": 6802,
      "informada": 6803,
      "convierte": 6804,
      "conviertan": 6805,
      "documento": 6806,
      "documentales": 6807,
      "descubrir": 6808,
      "descubramos": 6809,
      "suficientes": 6810,
      "soñando": 6811,
      "acordaba": 6812,
      "habitaciones": 6813,
      "derroche": 6814,
      "importantísi": 6815,
      "subversivos": 6816,
      "engañe": 6817,
      "aprovechar": 6818,
      "aprovechamiento": 6819,
      "Permí": 6820,
      "mentales": 6821,
      "optimi": 6822,
      "éxitos": 6823,
      "óptima": 6824,
      "quedará": 6825,
      "quedaron": 6826,
      "aniversario": 6827,
      "orgullo": 6828,
      "alegría": 6829,
      "tradición": 6830,
      "eléctrica": 6831,
      "eléctrico": 6832,
      "iniciamos": 6833,
      "semanas": 6834,
      "direcciones": 6835,
      "directamente": 6836,
      "embajador": 6837,
      "estímulos": 6838,
      "puertorrique": 6839,
      "comprar": 6840,
      "compramos": 6841,
      "competentes": 6842,
      "adoptan": 6843,
      "propugna": 6844,
      "pirateo": 6845,
      "testigo": 6846,
      "esclavi": 6847,
      "generoso": 6848,
      "peleando": 6849,
      "consideración": 6850,
      "elevando": 6851,
      "elevaron": 6852,
      "convertirse": 6853,
      "enfrentados": 6854,
      "enfrentarse": 6855,
      "enfrentamiento": 6856,
      "enfrentarlas": 6857,
      "enfermedad": 6858,
      "amenazas": 6859,
      "ridículas": 6860,
      "integridad": 6861,
      "ingenieros": 6862,
      "Carlos": 6863,
      "Carta": 6864,
      "Ley": 6865,
      "Leopoldo": 6866,
      "Niñas": 6867,
      "Tiene": 6868,
      "muestra": 6869,
      "octubre": 6870,
      "suelo": 6871,
      "sueño": 6872,
      "sueños": 6873,
      "sorpresiva": 6874,
      "variado": 6875,
      "árselas": 6876,
      "debatiendo": 6877,
      "encuentra": 6878,
      "encuentran": 6879,
      "alentador": 6880,
      "reconoce": 6881,
      "rebajar": 6882,
      "rebajamos": 6883,
      "indican": 6884,
      "desertor": 6885,
      "despojo": 6886,
      "descansar": 6887,
      "levantar": 6888,
      "levantando": 6889,
      "levantó": 6890,
      "impiden": 6891,
      "acobardar": 6892,
      "acobardan": 6893,
      "metrallas": 6894,
      "pretende": 6895,
      "distribución": 6896,
      "arrancándonos": 6897,
      "venideros": 6898,
      "autoagresión": 6899,
      "contradicciones": 6900,
      "idealismo": 6901,
      "razonar": 6902,
      "razonamiento": 6903,
      "conspirar": 6904,
      "espectadores": 6905,
      "mercenarios": 6906,
      "agresivo": 6907,
      "felizmente": 6908,
      "recuperar": 6909,
      "asegurarles": 6910,
      "reflexionado": 6911,
      "telefónicos": 6912,
      "telefónicas": 6913,
      "arquitectos": 6914,
      "Exactas": 6915,
      "Excelencia": 6916,
      "XXX": 6917,
      "afición": 6918,
      "aficionados": 6919,
      "círculos": 6920,
      "rincón": 6921,
      "urgentes": 6922,
      "escogido": 6923,
      "arancelarias": 6924,
      "argelinos": 6925,
      "asombro": 6926,
      "orient": 6927,
      "orientar": 6928,
      "aldea": 6929,
      "aldeas": 6930,
      "trust": 6931,
      "reiteradamente": 6932,
      "reúne": 6933,
      "reúnen": 6934,
      "elementos": 6935,
      "elementales": 6936,
      "inmensos": 6937,
      "incorregiblemente": 6938,
      "indigentes": 6939,
      "amistad": 6940,
      "estalla": 6941,
      "observar": 6942,
      "observadores": 6943,
      "compensen": 6944,
      "comienza": 6945,
      "captur": 6946,
      "capítulo": 6947,
      "exhibir": 6948,
      "movimientos": 6949,
      "preferido": 6950,
      "respaldo": 6951,
      "disgusto": 6952,
      "disgustados": 6953,
      "interpretación": 6954,
      "marxismo": 6955,
      "marxista": 6956,
      "definida": 6957,
      "financieros": 6958,
      "guerrillas": 6959,
      "guerrilleros": 6960,
      "señalado": 6961,
      "señalando": 6962,
      "reclaman": 6963,
      "reclamar": 6964,
      "ejemplaridad": 6965,
      "propietario": 6966,
      "inocente": 6967,
      "rurales": 6968,
      "Algunas": 6969,
      "mecánica": 6970,
      "mecánicas": 6971,
      "sometidos": 6972,
      "atreve": 6973,
      "armamentistas": 6974,
      "fascistas": 6975,
      "ensayos": 6976,
      "juzgará": 6977,
      "trascendencia": 6978,
      "indispensable": 6979,
      "gobernando": 6980,
      "Creemos": 6981,
      "Creían": 6982,
      "Norte": 6983,
      "Norteamérica": 6984,
      "Parece": 6985,
      "Planificación": 6986,
      "Platt": 6987,
      "afrontar": 6988,
      "africano": 6989,
      "fama": 6990,
      "juntas": 6991,
      "urbanas": 6992,
      "demuestran": 6993,
      "analizan": 6994,
      "revistas": 6995,
      "cuarta": 6996,
      "cuartel": 6997,
      "emulación": 6998,
      "abusado": 6999,
      "abusadores": 7000,
      "desalojar": 7001,
      "supeditación": 7002,
      "proponernos": 7003,
      "movilizado": 7004,
      "multitudin": 7005,
      "tardaron": 7006,
      "disminuir": 7007,
      "interrupto": 7008,
      "interruptos": 7009,
      "presenciales": 7010,
      "posesión": 7011,
      "posesiones": 7012,
      "puñal": 7013,
      "puñado": 7014,
      "estimule": 7015,
      "centavos": 7016,
      "Constitución": 7017,
      "Constituyente": 7018,
      "mercancías": 7019,
      "instigando": 7020,
      "legislativa": 7021,
      "consistía": 7022,
      "físicamente": 7023,
      "fabricación": 7024,
      "impugnamos": 7025,
      "desempeñar": 7026,
      "Podríamos": 7027,
      "procedimiento": 7028,
      "procedimientos": 7029,
      "victoriosa": 7030,
      "concebía": 7031,
      "leninismo": 7032,
      "leninista": 7033,
      "invertirlo": 7034,
      "consulta": 7035,
      "cuidadosamente": 7036,
      "tradicionalmente": 7037,
      "despojados": 7038,
      "elogios": 7039,
      "esgrime": 7040,
      "Actualmente": 7041,
      "Colombia": 7042,
      "Holly": 7043,
      "Imagínense": 7044,
      "Walterio": 7045,
      "ausencia": 7046,
      "bravo": 7047,
      "cánones": 7048,
      "flota": 7049,
      "frecuentes": 7050,
      "gloria": 7051,
      "hington": 7052,
      "padres": 7053,
      "pidan": 7054,
      "pierden": 7055,
      "stencionista": 7056,
      "degeneró": 7057,
      "decretarse": 7058,
      "envuelto": 7059,
      "arreglárnos": 7060,
      "alertas": 7061,
      "trágico": 7062,
      "reporten": 7063,
      "revisar": 7064,
      "retribución": 7065,
      "incesantemente": 7066,
      "injusticias": 7067,
      "conferencias": 7068,
      "amplía": 7069,
      "olvido": 7070,
      "abundan": 7071,
      "padeciendo": 7072,
      "descarados": 7073,
      "complicadas": 7074,
      "terrible": 7075,
      "violencia": 7076,
      "perpetrar": 7077,
      "pertinente": 7078,
      "perspectivas": 7079,
      "prohibi": 7080,
      "extremos": 7081,
      "experim": 7082,
      "resurgimiento": 7083,
      "éndolo": 7084,
      "arrastrar": 7085,
      "interminables": 7086,
      "ambicioso": 7087,
      "casualidad": 7088,
      "estafando": 7089,
      "forjando": 7090,
      "garantía": 7091,
      "quitándole": 7092,
      "ganadería": 7093,
      "tiránico": 7094,
      "plenamente": 7095,
      "unilateral": 7096,
      "ejecutivo": 7097,
      "Quiero": 7098,
      "misteriosamente": 7099,
      "discutiblemente": 7100,
      "colegio": 7101,
      "prisioneros": 7102,
      "honrada": 7103,
      "pandilla": 7104,
      "empeñaron": 7105,
      "sangrienta": 7106,
      "registrado": 7107,
      "asociados": 7108,
      "hermoso": 7109,
      "satisfechos": 7110,
      "Todavía": 7111,
      "gigantesca": 7112,
      "decisivo": 7113,
      "horrores": 7114,
      "felicidad": 7115,
      "generalizándose": 7116,
      "fracasar": 7117,
      "empiezan": 7118,
      "impresionante": 7119,
      "publicaciones": 7120,
      "planificadores": 7121,
      "aniquilar": 7122,
      "occidental": 7123,
      "árboles": 7124,
      "desenmascarar": 7125,
      "recogió": 7126,
      "celebrarse": 7127,
      "hidrocarbu": 7128,
      "término": 7129,
      "oligarquías": 7130,
      "características": 7131,
      "aireando": 7132,
      "fenómeno": 7133,
      "espirituales": 7134,
      "tuberculosos": 7135,
      "burguesía": 7136,
      "Abstencionista": 7137,
      "Asociación": 7138,
      "Bélgica": 7139,
      "CHA": 7140,
      "COHET": 7141,
      "Cerca": 7142,
      "Cisne": 7143,
      "Cienfuegos": 7144,
      "Desapar": 7145,
      "Eisenhow": 7146,
      "Efigenio": 7147,
      "Filipinas": 7148,
      "Guerra": 7149,
      "Holanda": 7150,
      "Hicimos": 7151,
      "Iraq": 7152,
      "Julio": 7153,
      "Libre": 7154,
      "Moa": 7155,
      "Manhattan": 7156,
      "Manuales": 7157,
      "Manifiesto": 7158,
      "Ningún": 7159,
      "OVACION": 7160,
      "Oceanía": 7161,
      "Radio": 7162,
      "Saudita": 7163,
      "Sartre": 7164,
      "Simplemente": 7165,
      "Santiago": 7166,
      "Tomás": 7167,
      "Tiranizada": 7168,
      "Villas": 7169,
      "Washington": 7170,
      "afán": 7171,
      "acatar": 7172,
      "aprecia": 7173,
      "aguerrido": 7174,
      "ajustada": 7175,
      "aislamiento": 7176,
      "atravesar": 7177,
      "blanco": 7178,
      "cínicos": 7179,
      "cobardes": 7180,
      "cadáveres": 7181,
      "duerman": 7182,
      "duelen": 7183,
      "equidad": 7184,
      "eficaz": 7185,
      "flores": 7186,
      "fantasma": 7187,
      "fiscalizar": 7188,
      "gallardos": 7189,
      "higiénicas": 7190,
      "páginas": 7191,
      "sábados": 7192,
      "saña": 7193,
      "demagogia": 7194,
      "decorosa": 7195,
      "osadía": 7196,
      "esposa": 7197,
      "estrangulamiento": 7198,
      "enseguida": 7199,
      "engrandecer": 7200,
      "envalentonado": 7201,
      "arbitrari": 7202,
      "ciclón": 7203,
      "asigna": 7204,
      "asimilar": 7205,
      "orquesta": 7206,
      "originó": 7207,
      "alfabeti": 7208,
      "alarmantes": 7209,
      "tránsito": 7210,
      "requisitos": 7211,
      "remuneración": 7212,
      "reversibles": 7213,
      "refinerías": 7214,
      "incuestionable": 7215,
      "inconfundible": 7216,
      "intimidar": 7217,
      "condolencia": 7218,
      "congolés": 7219,
      "seducirnos": 7220,
      "secretaría": 7221,
      "diversas": 7222,
      "diseñado": 7223,
      "dignidad": 7224,
      "curiosidad": 7225,
      "prolongados": 7226,
      "prisma": 7227,
      "préstese": 7228,
      "porcentaje": 7229,
      "simultáneamente": 7230,
      "parasitismo": 7231,
      "delincuentes": 7232,
      "desfachatez": 7233,
      "desgraciadamente": 7234,
      "sumarse": 7235,
      "implica": 7236,
      "imponerles": 7237,
      "terratenientes": 7238,
      "terapéutica": 7239,
      "provinciales": 7240,
      "motivaciones": 7241,
      "Regional": 7242,
      "ángulo": 7243,
      "hablábamos": 7244,
      "discretos": 7245,
      "lujosa": 7246,
      "crecimiento": 7247,
      "irresponsablemente": 7248,
      "sinfónica": 7249,
      "intervención": 7250,
      "colaborar": 7251,
      "cohonestan": 7252,
      "venidera": 7253,
      "vejez": 7254,
      "APROBACION": 7255,
      "carnicero": 7256,
      "agraviados": 7257,
      "ejércitos": 7258,
      "Quienes": 7259,
      "Continu": 7260,
      "Conjunta": 7261,
      "ESTALLI": 7262,
      "ESCUCHA": 7263,
      "hostilidad": 7264,
      "cintillos": 7265,
      "Inglaterra": 7266,
      "satisfactorio": 7267,
      "atmósfera": 7268,
      "fastidiarlo": 7269,
      "zoológico": 7270,
      "Hollywood": 7271,
      "hidrocarburos": 7272,
      "COHETES": 7273,
      "Eisenhower": 7274,
      "arbitrariedad": 7275,
      "!;": 7276,
      "!...": 7277,
      "!—,": 7278,
      "!\",": 7279,
      "\";": 7280,
      "';": 7281,
      "'.\"": 7282,
      "(...": 7283,
      ")—;": 7284,
      ".'": 7285,
      ".,": 7286,
      ".-": 7287,
      "17": 7288,
      "18": 7289,
      "1ro": 7290,
      "160": 7291,
      "115": 7292,
      "130": 7293,
      "22": 7294,
      "27": 7295,
      "2do": 7296,
      "2000": 7297,
      "260": 7298,
      "34": 7299,
      "37": 7300,
      "38": 7301,
      "46": 7302,
      "52": 7303,
      "650": 7304,
      "700": 7305,
      "85": 7306,
      "800": 7307,
      "98": 7308,
      "99": 7309,
      "?!": 7310,
      "?:": 7311,
      "AF": 7312,
      "AR": 7313,
      "AT": 7314,
      "At": 7315,
      "Ay": 7316,
      "Az": 7317,
      "Apar": 7318,
      "Agr": 7319,
      "Alem": 7320,
      "Aqui": 7321,
      "All": 7322,
      "Adam": 7323,
      "Aum": 7324,
      "Aran": 7325,
      "Aseguro": 7326,
      "Avenida": 7327,
      "Afortunadamente": 7328,
      "Be": 7329,
      "Bi": 7330,
      "Bo": 7331,
      "Bas": 7332,
      "Bási": 7333,
      "Boli": 7334,
      "CD": 7335,
      "Cor": 7336,
      "Cal": 7337,
      "Cin": 7338,
      "Cab": 7339,
      "Cha": 7340,
      "Cier": 7341,
      "Clu": 7342,
      "Cay": 7343,
      "Cés": 7344,
      "Colum": 7345,
      "Cine": 7346,
      "DO": 7347,
      "Do": 7348,
      "Du": 7349,
      "Due": 7350,
      "Del": 7351,
      "Dest": 7352,
      "Dese": 7353,
      "Dante": 7354,
      "Die": 7355,
      "Dig": 7356,
      "Doc": 7357,
      "Dice": 7358,
      "Dentro": 7359,
      "EC": 7360,
      "Em": 7361,
      "Et": 7362,
      "Ecu": 7363,
      "Edu": 7364,
      "Efec": 7365,
      "Eramos": 7366,
      "Etio": 7367,
      "Fa": 7368,
      "Fe": 7369,
      "Fi": 7370,
      "Fu": 7371,
      "Fer": 7372,
      "Fin": 7373,
      "Flo": 7374,
      "Fol": 7375,
      "FAR": 7376,
      "Go": 7377,
      "Gü": 7378,
      "Gue": 7379,
      "Gar": 7380,
      "Gre": 7381,
      "Gol": 7382,
      "Gir": 7383,
      "Ghan": 7384,
      "Gru": 7385,
      "Her": 7386,
      "Hit": 7387,
      "Himno": 7388,
      "IR": 7389,
      "IV": 7390,
      "Ión": 7391,
      "Jo": 7392,
      "Jap": 7393,
      "Lis": 7394,
      "Má": 7395,
      "Mer": 7396,
      "Mam": 7397,
      "Mus": 7398,
      "Mir": 7399,
      "Mil": 7400,
      "Medi": 7401,
      "Misión": 7402,
      "MIN": 7403,
      "MAT": 7404,
      "Nas": 7405,
      "Neces": 7406,
      "Oh": 7407,
      "Oj": 7408,
      "Ok": 7409,
      "Otra": 7410,
      "Otero": 7411,
      "Pa": 7412,
      "Pi": 7413,
      "Pl": 7414,
      "Pu": 7415,
      "Pre": 7416,
      "Pudi": 7417,
      "Pau": 7418,
      "Pinos": 7419,
      "Preci": 7420,
      "Pobr": 7421,
      "Pens": 7422,
      "Parla": 7423,
      "Pep": 7424,
      "Pinar": 7425,
      "Plante": 7426,
      "Pear": 7427,
      "Pídan": 7428,
      "Quer": 7429,
      "RA": 7430,
      "Ri": 7431,
      "Ram": 7432,
      "Rus": 7433,
      "Río": 7434,
      "Risas": 7435,
      "Rhin": 7436,
      "Sé": 7437,
      "Sal": 7438,
      "Som": 7439,
      "Sta": 7440,
      "Sán": 7441,
      "Sir": 7442,
      "Sena": 7443,
      "Suerte": 7444,
      "Sand": 7445,
      "Te": 7446,
      "Tú": 7447,
      "Tan": 7448,
      "Tam": 7449,
      "Tanto": 7450,
      "Tierra": 7451,
      "Trin": 7452,
      "Traba": 7453,
      "Uno": 7454,
      "Ve": 7455,
      "Van": 7456,
      "Vic": 7457,
      "Vino": 7458,
      "Vinci": 7459,
      "Vale": 7460,
      "Wor": 7461,
      "Wrig": 7462,
      "Yen": 7463,
      "aer": 7464,
      "ais": 7465,
      "apro": 7466,
      "atien": 7467,
      "aero": 7468,
      "atal": 7469,
      "ajo": 7470,
      "apas": 7471,
      "atura": 7472,
      "atado": 7473,
      "apropi": 7474,
      "aval": 7475,
      "aport": 7476,
      "acierto": 7477,
      "ataba": 7478,
      "atraer": 7479,
      "aprueba": 7480,
      "afro": 7481,
      "apelo": 7482,
      "aterri": 7483,
      "afortunadamente": 7484,
      "apartamentos": 7485,
      "bú": 7486,
      "bal": 7487,
      "bía": 7488,
      "bari": 7489,
      "barr": 7490,
      "bían": 7491,
      "baban": 7492,
      "bíamos": 7493,
      "bicar": 7494,
      "besto": 7495,
      "bimos": 7496,
      "bieron": 7497,
      "bél": 7498,
      "bración": 7499,
      "blanca": 7500,
      "bale": 7501,
      "balde": 7502,
      "bril": 7503,
      "ck": 7504,
      "cí": 7505,
      "cari": 7506,
      "cales": 7507,
      "cres": 7508,
      "cobre": 7509,
      "cante": 7510,
      "cés": 7511,
      "cable": 7512,
      "clá": 7513,
      "cábamos": 7514,
      "códi": 7515,
      "cadamente": 7516,
      "carro": 7517,
      "cándose": 7518,
      "clín": 7519,
      "dí": 7520,
      "dac": 7521,
      "dones": 7522,
      "déc": 7523,
      "dárselas": 7524,
      "eu": 7525,
      "ey": 7526,
      "eter": 7527,
      "egr": 7528,
      "epo": 7529,
      "egu": 7530,
      "etido": 7531,
      "efer": 7532,
      "edor": 7533,
      "etimos": 7534,
      "eándose": 7535,
      "etrado": 7536,
      "etern": 7537,
      "eció": 7538,
      "elato": 7539,
      "fos": 7540,
      "far": 7541,
      "fol": 7542,
      "fob": 7543,
      "fle": 7544,
      "fres": 7545,
      "fero": 7546,
      "fér": 7547,
      "ficos": 7548,
      "fraz": 7549,
      "ffer": 7550,
      "férica": 7551,
      "frido": 7552,
      "feta": 7553,
      "fase": 7554,
      "fasis": 7555,
      "fanas": 7556,
      "fritos": 7557,
      "gs": 7558,
      "gues": 7559,
      "gales": 7560,
      "gles": 7561,
      "garr": 7562,
      "gidos": 7563,
      "gida": 7564,
      "gios": 7565,
      "gasta": 7566,
      "gicos": 7567,
      "gías": 7568,
      "gable": 7569,
      "gremos": 7570,
      "gencias": 7571,
      "gedi": 7572,
      "greg": 7573,
      "gimiento": 7574,
      "gmentos": 7575,
      "gestó": 7576,
      "girse": 7577,
      "gestación": 7578,
      "hn": 7579,
      "hr": 7580,
      "ht": 7581,
      "hí": 7582,
      "hes": 7583,
      "hue": 7584,
      "har": 7585,
      "hom": 7586,
      "hues": 7587,
      "huel": 7588,
      "helo": 7589,
      "ij": 7590,
      "iar": 7591,
      "ición": 7592,
      "ira": 7593,
      "itor": 7594,
      "itas": 7595,
      "iden": 7596,
      "ital": 7597,
      "ihu": 7598,
      "illa": 7599,
      "isiones": 7600,
      "itud": 7601,
      "ibles": 7602,
      "izaron": 7603,
      "ivas": 7604,
      "iano": 7605,
      "icionar": 7606,
      "ivamente": 7607,
      "ificando": 7608,
      "iPatria": 7609,
      "iestro": 7610,
      "jen": 7611,
      "jar": 7612,
      "jan": 7613,
      "jese": 7614,
      "jidos": 7615,
      "jista": 7616,
      "jimos": 7617,
      "jicas": 7618,
      "juego": 7619,
      "janos": 7620,
      "jill": 7621,
      "ki": 7622,
      "ko": 7623,
      "kar": 7624,
      "kin": 7625,
      "kru": 7626,
      "klor": 7627,
      "kita": 7628,
      "ld": 7629,
      "ln": 7630,
      "lé": 7631,
      "lon": 7632,
      "lto": 7633,
      "luna": 7634,
      "lent": 7635,
      "lica": 7636,
      "lera": 7637,
      "lce": 7638,
      "lico": 7639,
      "leran": 7640,
      "limos": 7641,
      "lándose": 7642,
      "lencio": 7643,
      "mem": 7644,
      "mol": 7645,
      "mía": 7646,
      "mier": 7647,
      "mni": 7648,
      "midos": 7649,
      "mpl": 7650,
      "mpetu": 7651,
      "nó": 7652,
      "ner": 7653,
      "non": 7654,
      "nac": 7655,
      "nidos": 7656,
      "narnos": 7657,
      "nacer": 7658,
      "nemente": 7659,
      "op": 7660,
      "oz": 7661,
      "oti": 7662,
      "odi": 7663,
      "otor": 7664,
      "oza": 7665,
      "oían": 7666,
      "ocidad": 7667,
      "oposición": 7668,
      "oponemos": 7669,
      "odiar": 7670,
      "ovación": 7671,
      "oponerse": 7672,
      "oímos": 7673,
      "pá": 7674,
      "plos": 7675,
      "psi": 7676,
      "plas": 7677,
      "pis": 7678,
      "pta": 7679,
      "pía": 7680,
      "pando": 7681,
      "peso": 7682,
      "paban": 7683,
      "puni": 7684,
      "ptiem": 7685,
      "pical": 7686,
      "pídan": 7687,
      "pamento": 7688,
      "rer": 7689,
      "rol": 7690,
      "rom": 7691,
      "ris": 7692,
      "rudi": 7693,
      "rían": 7694,
      "ríamos": 7695,
      "rantes": 7696,
      "radas": 7697,
      "rías": 7698,
      "radores": 7699,
      "robar": 7700,
      "restablece": 7701,
      "rtida": 7702,
      "só": 7703,
      "sad": 7704,
      "sel": 7705,
      "sto": 7706,
      "sado": 7707,
      "seso": 7708,
      "stal": 7709,
      "sora": 7710,
      "stico": 7711,
      "sarios": 7712,
      "sobra": 7713,
      "sencilla": 7714,
      "sábamos": 7715,
      "squeda": 7716,
      "sciente": 7717,
      "sagrados": 7718,
      "té": 7719,
      "tí": 7720,
      "tha": 7721,
      "tás": 7722,
      "tmo": 7723,
      "taria": 7724,
      "tías": 7725,
      "tícu": 7726,
      "tariamente": 7727,
      "tísimo": 7728,
      "uz": 7729,
      "udo": 7730,
      "uda": 7731,
      "ugo": 7732,
      "utos": 7733,
      "uros": 7734,
      "ualmente": 7735,
      "umer": 7736,
      "uarse": 7737,
      "uina": 7738,
      "uzaron": 7739,
      "uaciones": 7740,
      "uré": 7741,
      "ugesti": 7742,
      "ucle": 7743,
      "urara": 7744,
      "ubicar": 7745,
      "vent": 7746,
      "vac": 7747,
      "vidad": 7748,
      "vada": 7749,
      "vesc": 7750,
      "vistas": 7751,
      "vable": 7752,
      "varon": 7753,
      "vul": 7754,
      "vador": 7755,
      "vables": 7756,
      "volv": 7757,
      "vín": 7758,
      "wa": 7759,
      "ws": 7760,
      "xa": 7761,
      "xon": 7762,
      "xim": 7763,
      "ximas": 7764,
      "yos": 7765,
      "yen": 7766,
      "yer": 7767,
      "yándonos": 7768,
      "yéndolo": 7769,
      "yugo": 7770,
      "zin": 7771,
      "zqu": 7772,
      "zcan": 7773,
      "zantes": 7774,
      "zadas": 7775,
      "zable": 7776,
      "zábamos": 7777,
      "zadamente": 7778,
      "zude": 7779,
      "zándonos": 7780,
      "zine": 7781,
      "¡¿": 7782,
      "¿,": 7783,
      "ádi": 7784,
      "álo": 7785,
      "ágar": 7786,
      "áramos": 7787,
      "áticos": 7788,
      "áqueo": 7789,
      "ámico": 7790,
      "édi": 7791,
      "éli": 7792,
      "ética": 7793,
      "étn": 7794,
      "égida": 7795,
      "íto": 7796,
      "ípro": 7797,
      "ída": 7798,
      "ígen": 7799,
      "íadas": 7800,
      "ídas": 7801,
      "ímiles": 7802,
      "ítimo": 7803,
      "ímpetu": 7804,
      "ñida": 7805,
      "ñidas": 7806,
      "ódr": 7807,
      "ófica": 7808,
      "ójicas": 7809,
      "úe": 7810,
      "úch": 7811,
      "úrg": 7812,
      "útiles": 7813,
      "üey": 7814,
      "—(": 7815,
      "—¿": 7816,
      "‘¿": 7817,
      "”:": 7818,
      "”...": 7819,
      "depor": 7820,
      "dedel": 7821,
      "deten": 7822,
      "deri": 7823,
      "depres": 7824,
      "detal": 7825,
      "devo": 7826,
      "deval": 7827,
      "declaro": 7828,
      "debil": 7829,
      "devenir": 7830,
      "designi": 7831,
      "desigu": 7832,
      "detendrán": 7833,
      "demag": 7834,
      "detractores": 7835,
      "deformado": 7836,
      "debilidad": 7837,
      "devuelva": 7838,
      "departamentos": 7839,
      "demni": 7840,
      "deuda": 7841,
      "ose": 7842,
      "osten": 7843,
      "osamente": 7844,
      "osada": 7845,
      "oscur": 7846,
      "osísi": 7847,
      "ostum": 7848,
      "osímiles": 7849,
      "eses": 7850,
      "estr": 7851,
      "espor": 7852,
      "espa": 7853,
      "esamente": 7854,
      "escur": 7855,
      "escep": 7856,
      "escuad": 7857,
      "estrem": 7858,
      "estru": 7859,
      "esbo": 7860,
      "enar": 7861,
      "enca": 7862,
      "enidad": 7863,
      "entraba": 7864,
      "enér": 7865,
      "ensión": 7866,
      "enable": 7867,
      "enarde": 7868,
      "entiendo": 7869,
      "enred": 7870,
      "ensangr": 7871,
      "encuadr": 7872,
      "enfocar": 7873,
      "enificando": 7874,
      "enumer": 7875,
      "uevan": 7876,
      "ueño": 7877,
      "arlos": 7878,
      "arán": 7879,
      "artes": 7880,
      "arenta": 7881,
      "arcab": 7882,
      "ardor": 7883,
      "argas": 7884,
      "arregla": 7885,
      "ers": 7886,
      "eris": 7887,
      "erra": 7888,
      "eramente": 7889,
      "lano": 7890,
      "ladel": 7891,
      "laba": 7892,
      "latina": 7893,
      "ladado": 7894,
      "laña": 7895,
      "lacio": 7896,
      "lavemos": 7897,
      "lador": 7898,
      "lamación": 7899,
      "lampi": 7900,
      "lamentar": 7901,
      "lagración": 7902,
      "quero": 7903,
      "quemar": 7904,
      "quetado": 7905,
      "queros": 7906,
      "quemó": 7907,
      "quemadas": 7908,
      "quemadu": 7909,
      "quemados": 7910,
      "onen": 7911,
      "onter": 7912,
      "onando": 7913,
      "onia": 7914,
      "onio": 7915,
      "onelato": 7916,
      "onucle": 7917,
      "onzadamente": 7918,
      "cipar": 7919,
      "cita": 7920,
      "cini": 7921,
      "ciero": 7922,
      "citos": 7923,
      "cible": 7924,
      "cimas": 7925,
      "cidar": 7926,
      "cipes": 7927,
      "cieran": 7928,
      "citado": 7929,
      "cialmente": 7930,
      "ciben": 7931,
      "citaba": 7932,
      "cidentes": 7933,
      "ciosa": 7934,
      "ciaría": 7935,
      "ciéndose": 7936,
      "anor": 7937,
      "anme": 7938,
      "anda": 7939,
      "anamente": 7940,
      "anfi": 7941,
      "ania": 7942,
      "angran": 7943,
      "andas": 7944,
      "anzó": 7945,
      "angus": 7946,
      "antismo": 7947,
      "analizados": 7948,
      "analiza": 7949,
      "anunció": 7950,
      "anhelo": 7951,
      "asun": 7952,
      "asus": 7953,
      "asista": 7954,
      "ascen": 7955,
      "asunto": 7956,
      "asit": 7957,
      "asum": 7958,
      "asequi": 7959,
      "astros": 7960,
      "ascendi": 7961,
      "asumir": 7962,
      "asbesto": 7963,
      "oro": 7964,
      "ornos": 7965,
      "ortodo": 7966,
      "oradores": 7967,
      "ordial": 7968,
      "orología": 7969,
      "ornar": 7970,
      "orígen": 7971,
      "orciaría": 7972,
      "als": 7973,
      "alá": 7974,
      "alic": 7975,
      "alía": 7976,
      "alter": 7977,
      "altas": 7978,
      "aldad": 7979,
      "altos": 7980,
      "alér": 7981,
      "altura": 7982,
      "alarm": 7983,
      "alzados": 7984,
      "try": 7985,
      "tren": 7986,
      "trun": 7987,
      "trada": 7988,
      "tradas": 7989,
      "trarse": 7990,
      "traso": 7991,
      "tramen": 7992,
      "trabas": 7993,
      "tronucle": 7994,
      "unán": 7995,
      "unales": 7996,
      "unidades": 7997,
      "unidas": 7998,
      "untry": 7999
    },
    "merges": [
      [
        "d",
        "e"
      ],
      [
        "o",
        "s"
      ],
      [
        "e",
        "s"
      ],
      [
        "e",
        "n"
      ],
      [
        "u",
        "e"
      ],
      [
        "a",
        "r"
      ],
      [
        "e",
        "r"
      ],
      [
        "l",
        "a"
      ],
      [
        "q",
        "ue"
      ],
      [
        "o",
        "n"
      ],
      [
        "c",
        "i"
      ],
      [
        "a",
        "n"
      ],
      [
        "a",
        "s"
      ],
      [
        "o",
        "r"
      ],
      [
        "a",
        "l"
      ],
      [
        "t",
        "r"
      ],
      [
        "u",
        "n"
      ],
      [
        "a",
        "d"
      ],
      [
        "r",
        "e"
      ],
      [
        "t",
        "i"
      ],
      [
        "e",
        "l"
      ],
      [
        "i",
        "n"
      ],
      [
        "l",
        "os"
      ],
      [
        "c",
        "on"
      ],
      [
        "t",
        "e"
      ],
      [
        "d",
        "o"
      ],
      [
        "a",
        "m"
      ],
      [
        "s",
        "e"
      ],
      [
        "t",
        "o"
      ],
      [
        "ó",
        "n"
      ],
      [
        "n",
        "o"
      ],
      [
        "d",
        "i"
      ],
      [
        "c",
        "u"
      ],
      [
        "p",
        "r"
      ],
      [
        "l",
        "o"
      ],
      [
        "e",
        "m"
      ],
      [
        "o",
        "l"
      ],
      [
        "a",
        "b"
      ],
      [
        "es",
        "t"
      ],
      [
        "ci",
        "ón"
      ],
      [
        "p",
        "or"
      ],
      [
        "o",
        "m"
      ],
      [
        "s",
        "i"
      ],
      [
        "o",
        "b"
      ],
      [
        "la",
        "s"
      ],
      [
        "p",
        "ar"
      ],
      [
        "q",
        "u"
      ],
      [
        "h",
        "a"
      ],
      [
        "i",
        "d"
      ],
      [
        "i",
        "c"
      ],
      [
        "i",
        "s"
      ],
      [
        "p",
        "a"
      ],
      [
        "de",
        "l"
      ],
      [
        "de",
        "s"
      ],
      [
        "ci",
        "on"
      ],
      [
        "t",
        "a"
      ],
      [
        "un",
        "a"
      ],
      [
        "p",
        "ue"
      ],
      [
        "en",
        "te"
      ],
      [
        "l",
        "e"
      ],
      [
        "s",
        "u"
      ],
      [
        "c",
        "om"
      ],
      [
        "n",
        "os"
      ],
      [
        "u",
        "es"
      ],
      [
        "í",
        "a"
      ],
      [
        "i",
        "m"
      ],
      [
        "c",
        "h"
      ],
      [
        "t",
        "en"
      ],
      [
        "par",
        "a"
      ],
      [
        "i",
        "er"
      ],
      [
        "ol",
        "u"
      ],
      [
        "ad",
        "o"
      ],
      [
        "o",
        "tr"
      ],
      [
        "t",
        "er"
      ],
      [
        "t",
        "u"
      ],
      [
        "g",
        "r"
      ],
      [
        "v",
        "olu"
      ],
      [
        "am",
        "os"
      ],
      [
        "ar",
        "i"
      ],
      [
        "ues",
        "tr"
      ],
      [
        "v",
        "i"
      ],
      [
        "p",
        "er"
      ],
      [
        "n",
        "uestr"
      ],
      [
        "r",
        "a"
      ],
      [
        "c",
        "a"
      ],
      [
        "em",
        "os"
      ],
      [
        "p",
        "o"
      ],
      [
        "pue",
        "b"
      ],
      [
        "ad",
        "os"
      ],
      [
        "á",
        "s"
      ],
      [
        "e",
        "c"
      ],
      [
        "r",
        "i"
      ],
      [
        "m",
        "a"
      ],
      [
        "m",
        "i"
      ],
      [
        "otr",
        "os"
      ],
      [
        "E",
        "s"
      ],
      [
        "an",
        "do"
      ],
      [
        "pr",
        "o"
      ],
      [
        "m",
        "ás"
      ],
      [
        "l",
        "i"
      ],
      [
        "to",
        "d"
      ],
      [
        "en",
        "t"
      ],
      [
        "b",
        "i"
      ],
      [
        "e",
        "x"
      ],
      [
        "m",
        "o"
      ],
      [
        "v",
        "er"
      ],
      [
        "s",
        "o"
      ],
      [
        "a",
        "c"
      ],
      [
        "m",
        "u"
      ],
      [
        "pueb",
        "lo"
      ],
      [
        "m",
        "e"
      ],
      [
        "p",
        "re"
      ],
      [
        "í",
        "s"
      ],
      [
        "R",
        "e"
      ],
      [
        "tr",
        "a"
      ],
      [
        "s",
        "er"
      ],
      [
        "cion",
        "es"
      ],
      [
        "ab",
        "a"
      ],
      [
        "b",
        "a"
      ],
      [
        "p",
        "i"
      ],
      [
        "pa",
        "ís"
      ],
      [
        "á",
        "n"
      ],
      [
        "ch",
        "o"
      ],
      [
        "ue",
        "r"
      ],
      [
        "Re",
        "volu"
      ],
      [
        "id",
        "ad"
      ],
      [
        "ic",
        "a"
      ],
      [
        "n",
        "a"
      ],
      [
        "t",
        "an"
      ],
      [
        "nos",
        "otros"
      ],
      [
        "ci",
        "a"
      ],
      [
        "ti",
        "en"
      ],
      [
        "d",
        "u"
      ],
      [
        "n",
        "i"
      ],
      [
        "l",
        "em"
      ],
      [
        "al",
        "es"
      ],
      [
        "d",
        "a"
      ],
      [
        "r",
        "es"
      ],
      [
        "por",
        "que"
      ],
      [
        "t",
        "or"
      ],
      [
        "com",
        "o"
      ],
      [
        "g",
        "o"
      ],
      [
        "t",
        "as"
      ],
      [
        "pr",
        "ob"
      ],
      [
        "h",
        "ab"
      ],
      [
        "m",
        "os"
      ],
      [
        "am",
        "ente"
      ],
      [
        "es",
        "o"
      ],
      [
        "on",
        "es"
      ],
      [
        "c",
        "er"
      ],
      [
        "t",
        "ar"
      ],
      [
        "de",
        "r"
      ],
      [
        "prob",
        "lem"
      ],
      [
        "ha",
        "y"
      ],
      [
        "ci",
        "r"
      ],
      [
        "di",
        "s"
      ],
      [
        "l",
        "u"
      ],
      [
        "ad",
        "a"
      ],
      [
        "m",
        "an"
      ],
      [
        "C",
        "u"
      ],
      [
        "é",
        "n"
      ],
      [
        "de",
        "n"
      ],
      [
        "ob",
        "ier"
      ],
      [
        "er",
        "a"
      ],
      [
        "cion",
        "ari"
      ],
      [
        "Revolu",
        "ción"
      ],
      [
        "u",
        "s"
      ],
      [
        "s",
        "on"
      ],
      [
        "c",
        "re"
      ],
      [
        "l",
        "es"
      ],
      [
        "p",
        "e"
      ],
      [
        "tr",
        "aba"
      ],
      [
        "ar",
        "r"
      ],
      [
        "tod",
        "os"
      ],
      [
        "traba",
        "j"
      ],
      [
        "i",
        "r"
      ],
      [
        "obier",
        "no"
      ],
      [
        "s",
        "in"
      ],
      [
        "c",
        "os"
      ],
      [
        "l",
        "ar"
      ],
      [
        "qu",
        "í"
      ],
      [
        "es",
        "a"
      ],
      [
        "Es",
        "t"
      ],
      [
        "es",
        "e"
      ],
      [
        "z",
        "a"
      ],
      [
        "in",
        "ter"
      ],
      [
        "re",
        "volu"
      ],
      [
        "U",
        "n"
      ],
      [
        "er",
        "o"
      ],
      [
        "qu",
        "é"
      ],
      [
        "qu",
        "ier"
      ],
      [
        "id",
        "os"
      ],
      [
        "nuestr",
        "o"
      ],
      [
        "c",
        "o"
      ],
      [
        "d",
        "ad"
      ],
      [
        "v",
        "en"
      ],
      [
        "de",
        "cir"
      ],
      [
        "m",
        "ente"
      ],
      [
        "id",
        "a"
      ],
      [
        "de",
        "b"
      ],
      [
        "g",
        "u"
      ],
      [
        "am",
        "bi"
      ],
      [
        "c",
        "as"
      ],
      [
        "t",
        "es"
      ],
      [
        "a",
        "quí"
      ],
      [
        "t",
        "os"
      ],
      [
        "ti",
        "v"
      ],
      [
        "c",
        "e"
      ],
      [
        "L",
        "A"
      ],
      [
        "f",
        "i"
      ],
      [
        "Cu",
        "ba"
      ],
      [
        "u",
        "di"
      ],
      [
        "la",
        "n"
      ],
      [
        "v",
        "e"
      ],
      [
        "ec",
        "es"
      ],
      [
        "to",
        "do"
      ],
      [
        "pr",
        "es"
      ],
      [
        "pue",
        "de"
      ],
      [
        "t",
        "al"
      ],
      [
        "or",
        "es"
      ],
      [
        "est",
        "a"
      ],
      [
        "tien",
        "e"
      ],
      [
        "Est",
        "ados"
      ],
      [
        "a",
        "ñ"
      ],
      [
        "f",
        "or"
      ],
      [
        "g",
        "ar"
      ],
      [
        "om",
        "b"
      ],
      [
        "qu",
        "i"
      ],
      [
        "Un",
        "idos"
      ],
      [
        "est",
        "á"
      ],
      [
        "des",
        "arr"
      ],
      [
        "desarr",
        "ol"
      ],
      [
        "0",
        "0"
      ],
      [
        "p",
        "os"
      ],
      [
        "is",
        "mo"
      ],
      [
        "cu",
        "r"
      ],
      [
        "i",
        "a"
      ],
      [
        "su",
        "s"
      ],
      [
        "ob",
        "re"
      ],
      [
        "p",
        "ol"
      ],
      [
        "r",
        "o"
      ],
      [
        "en",
        "tr"
      ],
      [
        "problem",
        "as"
      ],
      [
        "P",
        "or"
      ],
      [
        "ha",
        "cer"
      ],
      [
        "O",
        "S"
      ],
      [
        "g",
        "a"
      ],
      [
        "es",
        "c"
      ],
      [
        "al",
        "i"
      ],
      [
        "revolu",
        "cionari"
      ],
      [
        "y",
        "a"
      ],
      [
        "me",
        "di"
      ],
      [
        "h",
        "an"
      ],
      [
        "es",
        "os"
      ],
      [
        "en",
        "do"
      ],
      [
        "A",
        "P"
      ],
      [
        "g",
        "an"
      ],
      [
        "f",
        "uer"
      ],
      [
        "g",
        "obierno"
      ],
      [
        "ar",
        "ti"
      ],
      [
        "c",
        "ar"
      ],
      [
        "s",
        "ab"
      ],
      [
        "í",
        "an"
      ],
      [
        "g",
        "un"
      ],
      [
        "S",
        "OS"
      ],
      [
        "U",
        "SOS"
      ],
      [
        "s",
        "obre"
      ],
      [
        "LA",
        "USOS"
      ],
      [
        "AP",
        "LAUSOS"
      ],
      [
        "er",
        "os"
      ],
      [
        "es",
        "te"
      ],
      [
        "ambi",
        "én"
      ],
      [
        "n",
        "eces"
      ],
      [
        "de",
        "re"
      ],
      [
        "pr",
        "im"
      ],
      [
        "p",
        "u"
      ],
      [
        "en",
        "to"
      ],
      [
        "i",
        "o"
      ],
      [
        "ti",
        "r"
      ],
      [
        "é",
        "r"
      ],
      [
        "c",
        "am"
      ],
      [
        "d",
        "os"
      ],
      [
        "m",
        "un"
      ],
      [
        "t",
        "ambién"
      ],
      [
        "cu",
        "l"
      ],
      [
        "est",
        "án"
      ],
      [
        "nuestr",
        "a"
      ],
      [
        "i",
        "do"
      ],
      [
        "N",
        "o"
      ],
      [
        "s",
        "tr"
      ],
      [
        "ic",
        "o"
      ],
      [
        "pa",
        "ñ"
      ],
      [
        "h",
        "omb"
      ],
      [
        "z",
        "ar"
      ],
      [
        "is",
        "ta"
      ],
      [
        "b",
        "an"
      ],
      [
        "est",
        "udi"
      ],
      [
        "v",
        "a"
      ],
      [
        "en",
        "cia"
      ],
      [
        "L",
        "a"
      ],
      [
        "h",
        "e"
      ],
      [
        "en",
        "ci"
      ],
      [
        "ab",
        "an"
      ],
      [
        "a",
        "gr"
      ],
      [
        "p",
        "on"
      ],
      [
        "o",
        "cu"
      ],
      [
        "con",
        "tra"
      ],
      [
        "mun",
        "do"
      ],
      [
        "es",
        "ti"
      ],
      [
        "gr",
        "an"
      ],
      [
        "dere",
        "cho"
      ],
      [
        "b",
        "le"
      ],
      [
        "p",
        "l"
      ],
      [
        "re",
        "al"
      ],
      [
        "e",
        "con"
      ],
      [
        "un",
        "i"
      ],
      [
        "est",
        "ar"
      ],
      [
        "m",
        "in"
      ],
      [
        "p",
        "en"
      ],
      [
        "ú",
        "n"
      ],
      [
        "ten",
        "emos"
      ],
      [
        "h",
        "emos"
      ],
      [
        "f",
        "un"
      ],
      [
        ")",
        "."
      ],
      [
        "an",
        "te"
      ],
      [
        "so",
        "ci"
      ],
      [
        "trabaj",
        "o"
      ],
      [
        "m",
        "as"
      ],
      [
        "que",
        "l"
      ],
      [
        "ver",
        "si"
      ],
      [
        "mu",
        "ch"
      ],
      [
        "cu",
        "ando"
      ],
      [
        "v",
        "o"
      ],
      [
        "ri",
        "tor"
      ],
      [
        "pre",
        "ocu"
      ],
      [
        "fi",
        "ci"
      ],
      [
        "l",
        "le"
      ],
      [
        "m",
        "ar"
      ],
      [
        "de",
        "f"
      ],
      [
        "inter",
        "es"
      ],
      [
        "f",
        "r"
      ],
      [
        "ó",
        "m"
      ],
      [
        "is",
        "tas"
      ],
      [
        "per",
        "o"
      ],
      [
        "a",
        "quel"
      ],
      [
        "i",
        "e"
      ],
      [
        "j",
        "o"
      ],
      [
        "pro",
        "du"
      ],
      [
        "d",
        "on"
      ],
      [
        "ti",
        "ca"
      ],
      [
        "m",
        "en"
      ],
      [
        "cos",
        "as"
      ],
      [
        "s",
        "os"
      ],
      [
        "v",
        "an"
      ],
      [
        "pr",
        "en"
      ],
      [
        "problem",
        "a"
      ],
      [
        "b",
        "u"
      ],
      [
        "c",
        "es"
      ],
      [
        "es",
        "as"
      ],
      [
        "ti",
        "tu"
      ],
      [
        "cu",
        "al"
      ],
      [
        "E",
        "l"
      ],
      [
        "a",
        "y"
      ],
      [
        "e",
        "j"
      ],
      [
        "f",
        "ue"
      ],
      [
        "or",
        "a"
      ],
      [
        "par",
        "te"
      ],
      [
        "pos",
        "i"
      ],
      [
        "Q",
        "u"
      ],
      [
        "p",
        "as"
      ],
      [
        "li",
        "b"
      ],
      [
        "tod",
        "a"
      ],
      [
        "añ",
        "os"
      ],
      [
        "str",
        "u"
      ],
      [
        "E",
        "n"
      ],
      [
        "c",
        "en"
      ],
      [
        "m",
        "on"
      ],
      [
        "ida",
        "des"
      ],
      [
        "def",
        "en"
      ],
      [
        "b",
        "as"
      ],
      [
        "f",
        "in"
      ],
      [
        "h",
        "o"
      ],
      [
        "c",
        "ción"
      ],
      [
        "c",
        "ada"
      ],
      [
        "i",
        "g"
      ],
      [
        "m",
        "is"
      ],
      [
        "í",
        "amos"
      ],
      [
        "te",
        "des"
      ],
      [
        "cu",
        "ban"
      ],
      [
        "ari",
        "a"
      ],
      [
        "P",
        "ero"
      ],
      [
        "i",
        "os"
      ],
      [
        "l",
        "í"
      ],
      [
        "n",
        "or"
      ],
      [
        "tien",
        "en"
      ],
      [
        ".",
        "."
      ],
      [
        "com",
        "pañ"
      ],
      [
        "for",
        "ma"
      ],
      [
        "C",
        "on"
      ],
      [
        "g",
        "en"
      ],
      [
        "con",
        "di"
      ],
      [
        "cion",
        "al"
      ],
      [
        "pueb",
        "los"
      ],
      [
        "d",
        "ar"
      ],
      [
        "i",
        "ón"
      ],
      [
        "ó",
        "mo"
      ],
      [
        "nuestr",
        "os"
      ],
      [
        "c",
        "an"
      ],
      [
        "p",
        "lo"
      ],
      [
        "mu",
        "y"
      ],
      [
        "arti",
        "s"
      ],
      [
        "interes",
        "es"
      ],
      [
        "g",
        "uer"
      ],
      [
        "i",
        "al"
      ],
      [
        "l",
        "l"
      ],
      [
        "s",
        "a"
      ],
      [
        "tr",
        "o"
      ],
      [
        "ent",
        "os"
      ],
      [
        "dis",
        "cu"
      ],
      [
        "econ",
        "óm"
      ],
      [
        "soci",
        "al"
      ],
      [
        "d",
        "ía"
      ],
      [
        "s",
        "en"
      ],
      [
        "é",
        "s"
      ],
      [
        "al",
        "gun"
      ],
      [
        "se",
        "ñ"
      ],
      [
        "ent",
        "es"
      ],
      [
        "a",
        "h"
      ],
      [
        "a",
        "u"
      ],
      [
        "re",
        "cur"
      ],
      [
        "a",
        "de"
      ],
      [
        "ic",
        "an"
      ],
      [
        "im",
        "por"
      ],
      [
        "so",
        "lo"
      ],
      [
        "me",
        "j"
      ],
      [
        "p",
        "ues"
      ],
      [
        "an",
        "tes"
      ],
      [
        "país",
        "es"
      ],
      [
        "don",
        "de"
      ],
      [
        "c",
        "or"
      ],
      [
        "g",
        "ún"
      ],
      [
        "n",
        "e"
      ],
      [
        "n",
        "in"
      ],
      [
        "r",
        "as"
      ],
      [
        "h",
        "u"
      ],
      [
        "as",
        "ta"
      ],
      [
        "ad",
        "as"
      ],
      [
        "si",
        "ón"
      ],
      [
        "he",
        "cho"
      ],
      [
        "condi",
        "ciones"
      ],
      [
        "recur",
        "sos"
      ],
      [
        "d",
        "as"
      ],
      [
        "con",
        "tr"
      ],
      [
        "des",
        "de"
      ],
      [
        "ten",
        "er"
      ],
      [
        "tod",
        "as"
      ],
      [
        "desarrol",
        "lo"
      ],
      [
        "homb",
        "res"
      ],
      [
        "d",
        "r"
      ],
      [
        "mi",
        "li"
      ],
      [
        "l",
        "la"
      ],
      [
        "ic",
        "os"
      ],
      [
        "deb",
        "e"
      ],
      [
        "v",
        "ida"
      ],
      [
        "de",
        "mos"
      ],
      [
        "est",
        "amos"
      ],
      [
        "cionari",
        "o"
      ],
      [
        "us",
        "tedes"
      ],
      [
        "pol",
        "í"
      ],
      [
        "uni",
        "versi"
      ],
      [
        "b",
        "ar"
      ],
      [
        "ti",
        "do"
      ],
      [
        "hab",
        "ía"
      ],
      [
        "sin",
        "o"
      ],
      [
        "c",
        "ha"
      ],
      [
        "p",
        "es"
      ],
      [
        "p",
        "el"
      ],
      [
        "er",
        "ican"
      ],
      [
        "te",
        "am"
      ],
      [
        "c",
        "lar"
      ],
      [
        "o",
        "pol"
      ],
      [
        "p",
        "lan"
      ],
      [
        "Revolu",
        "cionario"
      ],
      [
        "G",
        "obierno"
      ],
      [
        "f",
        "u"
      ],
      [
        "p",
        "li"
      ],
      [
        "s",
        "al"
      ],
      [
        "t",
        "ad"
      ],
      [
        "í",
        "as"
      ],
      [
        "ad",
        "ie"
      ],
      [
        "ti",
        "n"
      ],
      [
        "se",
        "gu"
      ],
      [
        "cu",
        "esti"
      ],
      [
        "tu",
        "r"
      ],
      [
        "c",
        "ómo"
      ],
      [
        "f",
        "ec"
      ],
      [
        "h",
        "asta"
      ],
      [
        "er",
        "an"
      ],
      [
        "ic",
        "ar"
      ],
      [
        "mon",
        "opol"
      ],
      [
        "nor",
        "team"
      ],
      [
        "norteam",
        "erican"
      ],
      [
        "N",
        "os"
      ],
      [
        "i",
        "de"
      ],
      [
        "pi",
        "tal"
      ],
      [
        "ho",
        "y"
      ],
      [
        "c",
        "lu"
      ],
      [
        "cu",
        "m"
      ],
      [
        "a",
        "vi"
      ],
      [
        "f",
        "ica"
      ],
      [
        "al",
        "lí"
      ],
      [
        "am",
        "i"
      ],
      [
        "ari",
        "o"
      ],
      [
        "po",
        "der"
      ],
      [
        "es",
        "to"
      ],
      [
        "est",
        "os"
      ],
      [
        "entr",
        "e"
      ],
      [
        "pues",
        "to"
      ],
      [
        "i",
        "ones"
      ],
      [
        "t",
        "el"
      ],
      [
        "re",
        "c"
      ],
      [
        "añ",
        "o"
      ],
      [
        "much",
        "os"
      ],
      [
        "ci",
        "er"
      ],
      [
        "ten",
        "ido"
      ],
      [
        "ra",
        "z"
      ],
      [
        "bi",
        "en"
      ],
      [
        "mu",
        "cho"
      ],
      [
        "00",
        "0"
      ],
      [
        "artis",
        "tas"
      ],
      [
        "guer",
        "ra"
      ],
      [
        "O",
        "N"
      ],
      [
        "P",
        "arti"
      ],
      [
        "c",
        "ol"
      ],
      [
        "or",
        "gan"
      ],
      [
        "con",
        "s"
      ],
      [
        "con",
        "stru"
      ],
      [
        "fuer",
        "z"
      ],
      [
        "men",
        "os"
      ],
      [
        "cual",
        "quier"
      ],
      [
        "gr",
        "am"
      ],
      [
        "ve",
        "z"
      ],
      [
        "Parti",
        "do"
      ],
      [
        "n",
        "adie"
      ],
      [
        "en",
        "ta"
      ],
      [
        "ab",
        "le"
      ],
      [
        "tu",
        "ra"
      ],
      [
        "ca",
        "pital"
      ],
      [
        "Por",
        "que"
      ],
      [
        "a",
        "ción"
      ],
      [
        "n",
        "ue"
      ],
      [
        "t",
        "ado"
      ],
      [
        "tr",
        "an"
      ],
      [
        "pa",
        "tr"
      ],
      [
        "compañ",
        "eros"
      ],
      [
        "Nos",
        "otros"
      ],
      [
        "h",
        "is"
      ],
      [
        "re",
[...]
